tree
version=v3
num_class=1
num_tree_per_iteration=1
label_index=0
max_feature_idx=155
objective=regression
feature_names=rsam|friedrich_coefficients|coeff_3|m_3|r_30__abs_energy rsam|friedrich_coefficients|coeff_0|m_3|r_30__quantile__q_0.6 rsam|max_langevin_fixed_point|m_3|r_30__quantile__q_0.4 rsam|quantile|q_0.1__benford_correlation rsam|quantile|q_0.8__spkt_welch_density__coeff_8 rsam|spkt_welch_density|coeff_5__ar_coefficient__coeff_0__k_10 rsam|median__quantile__q_0.8 rsam|mean_change__maximum rsam|quantile|q_0.9__benford_correlation rsam|quantile|q_0.9__standard_deviation rsam|spkt_welch_density|coeff_5__cid_ce__normalize_False rsam|ar_coefficient|coeff_3|k_10__c3__lag_1 rsam|ar_coefficient|coeff_3|k_10__c3__lag_3 rsam|ar_coefficient|coeff_3|k_10__quantile__q_0.2 rsam|ar_coefficient|coeff_3|k_10__abs_energy rsam|ar_coefficient|coeff_3|k_10__quantile__q_0.1 rsam|ar_coefficient|coeff_3|k_10__quantile__q_0.4 rsam|ar_coefficient|coeff_3|k_10__quantile__q_0.6 rsam|ar_coefficient|coeff_7|k_10__quantile__q_0.9 rsam|ar_coefficient|coeff_3|k_10__quantile__q_0.3 rsam|ar_coefficient|coeff_0|k_10__cid_ce__normalize_False rsam|ar_coefficient|coeff_0|k_10__absolute_sum_of_changes rsam|ar_coefficient|coeff_1|k_10__quantile__q_0.8 rsam|ar_coefficient|coeff_1|k_10__quantile__q_0.6 rsam|ar_coefficient|coeff_1|k_10__quantile__q_0.7 rsam|ar_coefficient|coeff_1|k_10__quantile__q_0.3 rsam|ar_coefficient|coeff_1|k_10__quantile__q_0.1 rsam|ar_coefficient|coeff_1|k_10__median rsam|ar_coefficient|coeff_1|k_10__c3__lag_2 rsam|c3|lag_2__quantile__q_0.9 rsam|c3|lag_1__quantile__q_0.9 rsam|c3|lag_1__maximum rsam|time_reversal_asymmetry_statistic|lag_2__standard_deviation rsam|spkt_welch_density|coeff_8__cid_ce__normalize_False rsam|spkt_welch_density|coeff_2__abs_energy rsam|spkt_welch_density|coeff_8__root_mean_square rsam|spkt_welch_density|coeff_8__quantile__q_0.9 rsam|spkt_welch_density|coeff_8__quantile__q_0.8 rsam|spkt_welch_density|coeff_8__quantile__q_0.3 rsam|spkt_welch_density|coeff_8__quantile__q_0.4 rsam|spkt_welch_density|coeff_8__quantile__q_0.6 rsam|spkt_welch_density|coeff_8__median rsam|spkt_welch_density|coeff_5__quantile__q_0.1 rsam|spkt_welch_density|coeff_5__quantile__q_0.2 rsam|spkt_welch_density|coeff_5__quantile__q_0.3 rsam|spkt_welch_density|coeff_5__quantile__q_0.6 rsam|spkt_welch_density|coeff_5__quantile__q_0.7 rsam|spkt_welch_density|coeff_5__quantile__q_0.8 rsam|spkt_welch_density|coeff_5__median rsam|spkt_welch_density|coeff_5__maximum rsam|spkt_welch_density|coeff_5__quantile__q_0.9 rsam|spkt_welch_density|coeff_8__ar_coefficient__coeff_0__k_10 rsam|spkt_welch_density|coeff_8__absolute_sum_of_changes rsam|spkt_welch_density|coeff_2__ar_coefficient__coeff_0__k_10 rsam|spkt_welch_density|coeff_2__friedrich_coefficients__coeff_3__m_3__r_30 rsam|spkt_welch_density|coeff_2__quantile__q_0.6 rsam|absolute_sum_of_changes__benford_correlation rsam|abs_energy__spkt_welch_density__coeff_8 rsam|abs_energy__spkt_welch_density__coeff_5 rsam|abs_energy__spkt_welch_density__coeff_2 rsam|maximum__benford_correlation rsam|minimum__benford_correlation rsam|quantile|q_0.3__benford_correlation rsam|quantile|q_0.7__benford_correlation rsam|benford_correlation__quantile__q_0.3 rsam|benford_correlation__quantile__q_0.1 rsam|benford_correlation__median rsam|benford_correlation__quantile__q_0.6 rsam|number_cwt_peaks|n_5__count_above_mean rsam|number_cwt_peaks|n_1__count_below_mean rsam|number_cwt_peaks|n_1__count_above_mean rsam|permutation_entropy|dimension_6|tau_1__benford_correlation rsam|cid_ce|normalize_False__benford_correlation rsam|number_peaks|n_1__number_peaks__n_1 rsam|benford_correlation__quantile__q_0.7 rsam|first_location_of_minimum__permutation_entropy__dimension_3__tau_1 rsam|number_cwt_peaks|n_1__ratio_beyond_r_sigma__r_0.5 rsam|first_location_of_maximum__permutation_entropy__dimension_3__tau_1 rsam|quantile|q_0.8__ar_coefficient__coeff_2__k_10 rsam|root_mean_square__benford_correlation rsam|permutation_entropy|dimension_3|tau_1__variation_coefficient rsam|quantile|q_0.6__variation_coefficient rsam|standard_deviation__benford_correlation rsam|quantile|q_0.2__ar_coefficient__coeff_2__k_10 rsam|number_cwt_peaks|n_1__binned_entropy__max_bins_10 rsam|first_location_of_minimum__permutation_entropy__dimension_4__tau_1 rsam|variance__count_above_mean rsam|number_cwt_peaks|n_1__permutation_entropy__dimension_7__tau_1 rsam|permutation_entropy|dimension_7|tau_1__absolute_sum_of_changes rsam|permutation_entropy|dimension_3|tau_1__absolute_sum_of_changes rsam|median__benford_correlation rsam|first_location_of_maximum__permutation_entropy__dimension_4__tau_1 rsam|first_location_of_minimum__permutation_entropy__dimension_5__tau_1 rsam|number_peaks|n_1__lempel_ziv_complexity__bins_100 rsam|index_mass_quantile|q_0.2__ar_coefficient__coeff_1__k_10 rsam|index_mass_quantile|q_0.2__autocorrelation__lag_1 rsam|quantile|q_0.2__partial_autocorrelation__lag_2 rsam|first_location_of_minimum__permutation_entropy__dimension_6__tau_1 rsam|spkt_welch_density|coeff_5__variation_coefficient rsam|number_peaks|n_1__ratio_beyond_r_sigma__r_1.5 rsam|quantile|q_0.8__benford_correlation rsam|number_cwt_peaks|n_1__benford_correlation rsam|quantile|q_0.2__benford_correlation rsam|fourier_entropy|bins_10__ratio_beyond_r_sigma__r_1.5 rsam|ar_coefficient|coeff_1|k_10__ar_coefficient__coeff_1__k_10 rsam|permutation_entropy|dimension_6|tau_1__ratio_beyond_r_sigma__r_0.5 rsam|quantile|q_0.7__ar_coefficient__coeff_2__k_10 rsam|maximum__variation_coefficient rsam|quantile|q_0.3__ar_coefficient__coeff_2__k_10 rsam|number_cwt_peaks|n_1__abs_energy rsam|permutation_entropy|dimension_7|tau_1__skewness rsam|number_cwt_peaks|n_1__sum_of_reoccurring_data_points rsam|fourier_entropy|bins_10__variation_coefficient rsam|quantile|q_0.6__partial_autocorrelation__lag_2 rsam|permutation_entropy|dimension_6|tau_1__skewness rsam|permutation_entropy|dimension_7|tau_1__count_above_mean rsam|quantile|q_0.6__ar_coefficient__coeff_2__k_10 rsam|ar_coefficient|coeff_2|k_10__ar_coefficient__coeff_1__k_10 rsam|quantile|q_0.8__variation_coefficient rsam|number_cwt_peaks|n_5__abs_energy rsam|permutation_entropy|dimension_5|tau_1__ratio_beyond_r_sigma__r_2 rsam|quantile|q_0.7__partial_autocorrelation__lag_2 rsam|quantile|q_0.2__ar_coefficient__coeff_1__k_10 rsam|permutation_entropy|dimension_4|tau_1__skewness rsam|quantile|q_0.3__partial_autocorrelation__lag_2 rsam|cid_ce|normalize_False__variation_coefficient rsam|ar_coefficient|coeff_3|k_10__ar_coefficient__coeff_1__k_10 rsam|permutation_entropy|dimension_6|tau_1__count_above_mean rsam|number_peaks|n_3__skewness rsam|number_cwt_peaks|n_1__variation_coefficient rsam|quantile|q_0.9__variation_coefficient rsam|permutation_entropy|dimension_5|tau_1__kurtosis rsam|permutation_entropy|dimension_4|tau_1__ratio_beyond_r_sigma__r_0.5 rsam|ar_coefficient|coeff_4|k_10__ar_coefficient__coeff_1__k_10 rsam|permutation_entropy|dimension_7|tau_1__quantile__q_0.8 rsam|permutation_entropy|dimension_5|tau_1__quantile__q_0.8 rsam|permutation_entropy|dimension_7|tau_1__quantile__q_0.9 rsam|quantile|q_0.7__cid_ce__normalize_True rsam|number_cwt_peaks|n_1__lempel_ziv_complexity__bins_5 rsam|permutation_entropy|dimension_4|tau_1__quantile__q_0.8 rsam|permutation_entropy|dimension_4|tau_1__kurtosis rsam|quantile|q_0.7__ar_coefficient__coeff_1__k_10 rsam|quantile|q_0.3__ar_coefficient__coeff_1__k_10 rsam|permutation_entropy|dimension_3|tau_1__quantile__q_0.9 rsam|ar_coefficient|coeff_0|k_10__ar_coefficient__coeff_1__k_10 rsam|number_cwt_peaks|n_1__ratio_beyond_r_sigma__r_2 rsam|fourier_entropy|bins_5__variation_coefficient rsam|cid_ce|normalize_True__skewness rsam|number_crossing_m|m_0__skewness rsam|permutation_entropy|dimension_3|tau_1__kurtosis rsam|permutation_entropy|dimension_3|tau_1__ratio_beyond_r_sigma__r_0.5 rsam|ar_coefficient|coeff_0|k_10__number_crossing_m__m_0 rsam|number_peaks|n_1__skewness rsam|ar_coefficient|coeff_0|k_10__cid_ce__normalize_True rsam|variance__benford_correlation rsam|ar_coefficient|coeff_0|k_10__partial_autocorrelation__lag_1
feature_infos=[2.5592085790746038e-16:1.6287813292272482e-11] [-9739471861.4565411:1215748238384.2737] [3.8952219886514917e-08:6.8190316333304929e-06] [-0.63399684512596877:0.98852698681129758] [6.8228386419546789e-17:6.1096524276189853e-11] [5.6820589687606546e-15:8.300822139759706e-11] [4.0562722601544832e-09:6.3237854573137363e-07] [1.4653107034861781e-09:1.1525669409777796e-06] [-0.64347709571177913:0.98985338725611827] [1.446210460764004e-08:1.0876990639450754e-05] [3.6976748874590724e-13:6.6761355534070925e-08] [24110.016767238736:319852.26155313448] [23895.81644057696:319644.1329522939] [24.212796131632103:66.131179530566442] [493433.23419740552:2808964.0480379732] [22.346987476169126:64.569258756859924] [27.024372936431789:67.863493911566906] [29.504817989730689:69.23776956032961] [21.00451516860112:63.28769562265952] [25.623260698644046:67.069431303889715] [1.6302865496391225e-11:2.2413991966993052e-09] [3.1027085920923323e-10:1.4139391374954907e-08] [6.1009374717954987:8.1379778133577929] [5.9450234103341471:8.0794105786673747] [6.0122470878385039:8.1038674465929041] [5.7391003785971151:7.9882438823257873] [5.5625699832765552:7.8853769540199208] [5.8752655850586422:8.0510971155658808] [204.07628985736849:520.36238203466576] [1.6619973583202663e-23:6.0896851280960733e-17] [2.0736955922937472e-23:7.1943674019005201e-17] [9.5524555563017058e-23:5.3252477039304852e-14] [6.3666518877412418e-24:1.5146903384044824e-15] [1.968530131682492e-15:1.8410989786678789e-10] [8.9076758462365045e-25:3.5172270570717488e-14] [8.1585768346744593e-17:9.835934506954869e-12] [1.24068848461102e-16:1.1997418679682517e-12] [8.8342248979721274e-17:2.7716288438771477e-13] [1.9457089319267963e-17:2.1590167299696725e-14] [2.7500950278674136e-17:3.4209328116845056e-14] [4.7297196998787744e-17:6.3794571881684669e-14] [3.603359778305813e-17:4.7106736446760419e-14] [8.7794430950547122e-16:2.4544611667970358e-11] [1.8456694069443733e-15:4.1058382105002056e-11] [3.2811835074696848e-15:5.439510002498361e-11] [9.3015528838640933e-15:9.57330212117801e-11] [1.229265525727554e-14:1.1650637680742384e-10] [1.6140771106952018e-14:1.938629813070064e-10] [6.9237973791499052e-15:7.8302394610037045e-11] [6.046813573963078e-14:3.3083865315371582e-08] [2.2396993351689123e-14:9.2231484337275372e-10] [5.5085663693306788e-17:2.9622689938067822e-13] [3.4161723114069314e-14:9.3498839497560487e-10] [-9.585553314523444e-14:6.2130420168836694e-10] [-1.7611728997781652e-10:5.6335743616899734e-10] [2.5186338610484051e-14:5.9167012320794176e-10] [-0.63651347582331264:0.98700309735706637] [5.6631011913702126e-27:2.7308796102232027e-15] [3.5145589687011092e-27:5.8062503281355856e-15] [4.2969538919386958e-27:5.3817507245529478e-14] [-0.59397746712319288:0.98431871000871063] [-0.61426237343520929:0.98440876277912859] [-0.48573475986222464:0.99175977008463689] [-0.42044056453285766:0.99574744509422197] [0.37314607710014741:0.91265341451589177] [0.0088602491745742133:0.85741825405925476] [0.58550322637560015:0.93930412051644496] [0.67601478188650277:0.94752730874250668] [176:410] [96:492] [108:504] [0.43180470623194939:0.95511532596970761] [-0.61722882021496617:0.98357428983871209] [9:169] [0.76559363681387516:0.95684084053484553] [1.3601633866363241:1.7917146568428808] [0.25:1] [1.4012401134408046:1.791714656842881] [-0.37215059831237374:0.65828875237934581] [-0.6668826280047635:0.99195803347609945] [0.024424352685547844:0.055955442082347671] [0.44528180518732685:3.9048738539167007] [-0.65573679696916731:0.9932173479533789] [-0.1958137921915242:0.59074499959538018] [0.74037764690089525:1.6509414054941121] [2.3435468650822098:3.1733922997685213] [9:307] [4.0217626759409217:6.1982490690041949] [58.819488474216662:161.49998353048485] [15.83960688256521:35.886192073265477] [0.81496712473107069:0.99836650432850349] [2.3326948460258539:3.172667422752435] [3.382645449527613:4.7207753632407758] [0.14999999999999999:0.26500000000000001] [-0.33799116257157813:0.29457186900837457] [-0.33002654215023597:0.34388473412426102] [-0.23359970905699806:0.48884676012442685] [4.3059634939535645:5.9649984143124497] [0.65913113990388617:16.614911874246211] [0:0.40999999999999998] [-0.57688250227703974:0.99338800059137944] [-0.38924970973293782:0.092853419519378269] [-0.58964476298947321:0.99364612946387854] [0.035000000000000003:0.29833333333333334] [-0.015253503844644412:0.65950165820795248] [0.435:0.76166666666666671] [-0.2164883705589887:0.64962039712390862] [0.21852953261616101:3.0437554305278636] [-0.21952668859281535:0.4324824779765829] [6452:18657] [-1.2654103646508128:2.2324912885706807] [1914:3287] [0.1688105173886581:0.28630379911944948] [-0.36510485417996985:0.58601788905273067] [-1.2873980143792592:2.1372772732261045] [177:375] [-0.38055993187049691:0.69078680061409525] [-0.019652983797206924:0.63974457012912511] [0.27149989162653504:3.1280305565031457] [12105:29772] [0.016666666666666666:0.078333333333333338] [-0.22308748971742998:0.54148339872617512] [-0.120185510276746:0.74633308646587326] [-1.3232814481692328:1.8000320669469903] [-0.26930479731292561:0.45917279050940402] [0.22367221921996694:2.9459416819469397] [-0.025302330356030994:0.63661977072597009] [178:382] [-1.1864616843397282:1.0429774816580331] [0.103087882969514:0.27179136552102801] [0.24049632293654435:3.0627987023883119] [-0.8312784283693162:7.4096652775991387] [0.35999999999999999:0.76166666666666671] [-0.02980881351078396:0.6354182772121042] [1.8845180749024895:2.5845221947780388] [1.4231092381352588:1.847890069935864] [1.9294894349198464:2.6653176070602376] [10.14623248996746:36.174804433644283] [0.14666666666666667:0.29166666666666669] [1.1817298186639007:1.4658264876593989] [-0.83416416528240012:6.2981028977867251] [-0.09217292724023618:0.84670155917146572] [-0.11165066703473034:0.84437767539097264] [0.95643775841047085:1.0911340147038779] [-0.34477078873343481:0.59124341837578775] [0:0.14666666666666667] [0.17390622109249793:0.29947424552235263] [-0.96234698670744101:2.4491234938873281] [-1.0705014981737522:1.9522508323089136] [-0.78434910396327107:4.7625857265487825] [0.37166666666666665:0.7416666666666667] [159:392] [-1.0109894861539486:1.5299484876338549] [22.737903150585705:39.916060363617916] [0.2397485231922504:0.99775007970663554] [-0.32975967440973869:0.5700100808905354]
tree_sizes=2830 2847 2842 2827 2842 2836 2851 2863 2839 2839 2838 2820 2822 2817 2820 2795 2773 2810 2780 2756 2770 2768 2751 2740 2722 2714 2723 2773 2730 2724 2743 2724 2730 2724 2724 2772 2716 2732 2727 2741 2715 2744 2732 2733 2723 2718 2745 2713 2747 2736 2742 2754 2752 2742 2757 2740 2779 2735 2751 2729 2783 2769 2749 2755 2783 2737 2745 2773 2756 2744 2774 2744 2792 2737 2763 2771 2760 2728 2779 2780 2762 2783 2768 2772 2768 2767 2758 2770 2768 2750 2772 2738 2765 2766 2775 2744 2754 2751 2755 2765

Tree=0
num_leaves=31
num_cat=0
split_feature=10 48 29 64 45 143 5 44 66 49 154 46 20 24 150 86 136 56 45 48 37 30 123 82 129 50 67 8 30 23
split_gain=2.59989e+09 6.62494e+08 5.20131e+08 1.00966e+08 9.43876e+07 5.90289e+07 4.49796e+07 4.0369e+07 3.05361e+07 1.92013e+07 1.65299e+07 1.43006e+07 1.2255e+07 1.41891e+07 1.10578e+07 1.07894e+07 1.01579e+07 9.54112e+06 6.98463e+06 6.7108e+06 6.0962e+06 5.38528e+06 5.17004e+06 4.18116e+06 4.85124e+06 3.68336e+06 3.66448e+06 3.19219e+06 3.19148e+06 3.1709e+06
threshold=1.17013736690525e-10 1.1285436608288765e-11 2.2307203190412545e-20 0.79839690629960736 9.7125311847373806e-12 1.0563720398770966 9.203543510702983e-13 3.2012241575702505e-14 0.87671233293118056 1.1095886323806614e-10 0.97492635332268962 2.5445809426761277e-12 2.9374622651256438e-11 6.5017024666898005 0.64750000000000008 216.50000000000003 2.4212351236106717 0.90409610908988858 7.4147202474886095e-13 1.5631601294030563e-11 1.1998661889205928e-14 1.4930704010069499e-19 0.47656525824156454 0.84145712727828126 0.19736243320586888 1.2634441688142021e-11 0.91626681750980266 0.87294916148420965 5.0969404709406026e-20 7.0240338081702767
decision_type=2 2 2 2 2 2 2 2 2 2 2 2 2 2 2 2 2 2 2 2 2 2 2 2 2 2 2 2 2 2
left_child=2 4 7 -3 5 8 18 -1 15 20 16 22 -9 -14 19 -2 27 23 -4 -5 25 -17 -8 24 -15 -10 -19 -6 -20 -24
right_child=1 3 6 14 10 -7 11 12 9 -11 -12 -13 13 17 -16 21 -18 26 28 -21 -22 -23 29 -25 -26 -27 -28 -29 -30 -31
leaf_value=1470.2788191927461 1603.6973763285073 2085.499681819791 1545.915402599775 1860.1244190295349 1701.4048540775138 1519.3463784106384 1588.4521100892671 1493.9255681337265 1661.9182920408059 1802.0373725039431 1849.8319123156678 1630.4190385873621 1475.5444789060575 1538.1098293422599 1829.2193927844178 1646.2508785902889 1781.3680892260682 1541.7847109011052 1559.9298366117289 1929.5093603296368 1716.9168217594806 1680.6733713869078 1635.3782816935422 1502.4899431307922 1511.1714389444344 1698.8603490646403 1599.5622461958019 1743.2955145334186 1580.3910035554873 1602.2784400339444
leaf_weight=343 22 36 135 20 23 20 354 247 30 21 20 158 59 184 24 53 80 21 120 46 226 319 31 80 105 269 23 87 209 436
leaf_count=343 22 36 135 20 23 20 354 247 30 21 20 158 59 184 24 53 80 21 120 46 226 319 31 80 105 269 23 87 209 436
internal_value=1611.11 1726.09 1551.62 1943.96 1702.63 1689.35 1590.71 1498.51 1692.96 1708.27 1763.36 1602.87 1511.97 1521.42 1887.35 1671.74 1754.26 1527.97 1565.07 1908.48 1704.52 1675.77 1597.57 1522.72 1528.32 1695.15 1571.99 1734.54 1572.93 1604.48
internal_weight=0 1296 2505 126 1170 960 1443 1062 940 546 210 979 719 472 90 394 190 413 464 66 525 372 821 369 289 299 44 110 329 467
internal_count=3801 1296 2505 126 1170 960 1443 1062 940 546 210 979 719 472 90 394 190 413 464 66 525 372 821 369 289 299 44 110 329 467
is_linear=0
shrinkage=1


Tree=1
num_leaves=31
num_cat=0
split_feature=10 48 29 66 50 64 5 44 74 38 154 47 150 21 24 43 98 47 5 56 48 136 18 21 50 48 33 21 60 69
split_gain=2.10605e+09 5.32275e+08 4.28661e+08 8.2074e+07 7.50824e+07 4.38688e+07 3.79133e+07 3.27459e+07 1.9725e+07 1.9024e+07 1.75203e+07 1.18849e+07 1.03264e+07 9.48581e+06 1.33241e+07 8.86372e+06 1.08886e+07 8.62756e+06 8.13446e+06 6.33696e+06 5.43575e+06 4.88199e+06 4.19918e+06 4.06994e+06 4.06301e+06 3.58324e+06 3.55763e+06 2.88164e+06 2.86326e+06 2.65555e+06
threshold=1.2029637609414493e-10 1.1285436608288765e-11 2.2307203190412545e-20 0.88111475353195778 2.5516793600271141e-11 0.76121199269228979 1.0319759275301335e-12 2.8046688598673134e-14 0.92295723511987582 9.2872338064924299e-16 0.97393722144243566 3.4302238833281135e-12 0.64750000000000008 5.6473339663766965e-10 6.5017024666898005 2.4690441702456196e-12 1.1204897641049285 1.0399328380764244e-11 6.1463384112349948e-13 0.90409610908988858 1.5631601294030563e-11 2.4003707497108961 36.259063643249114 1.3556059317698438e-09 1.2634441688142021e-11 4.611028314165691e-13 3.0949668175156589e-13 7.4293949076312584e-10 0.71857525357152263 346.50000000000006
decision_type=2 2 2 2 2 2 2 2 2 2 2 2 2 2 2 2 2 2 2 2 2 2 2 2 2 2 2 2 2 2
left_child=2 4 7 -3 5 9 18 -1 24 -2 17 23 20 -9 -15 26 21 -10 -4 25 -5 -17 -21 -8 -7 -16 -6 -13 -20 -22
right_child=1 3 6 12 15 8 11 13 10 -11 -12 27 -14 14 19 16 -18 -19 28 22 29 -23 -24 -25 -26 -27 -28 -29 -30 -31
leaf_value=-127.63062010974419 -91.969604816436771 424.73960587785052 -54.535052442550665 224.11275207519532 128.96808612530049 53.235875254369979 -14.941822230889967 -104.98742516150843 26.612445373535156 29.671119096544057 186.64198135375977 -9.603633696457436 189.82652070418649 -121.8540308855582 -84.781165204729348 98.649624328613285 223.50973999023438 94.319422749964801 -44.231073941889498 -15.206130678313119 265.4861823448768 153.05876315502411 -75.200275955200198 2.2812222057422722 71.501255834384239 -61.885960421354881 72.868741912841799 25.03017958368574 -24.383779614218351 313.9541558837891
leaf_weight=328 20 37 192 20 26 179 523 260 20 36 20 29 23 69 266 20 20 319 97 28 26 94 20 186 381 92 20 140 290 20
leaf_count=328 20 37 192 20 26 179 523 260 20 36 20 29 23 69 266 20 20 319 97 28 26 94 20 186 381 92 20 140 290 20
internal_value=0 104.402 -53.0713 299.566 83.1119 72.1569 -17.8428 -101.357 77.393 -13.772 95.6908 -4.74322 247.528 -89.6323 -81.2274 142.451 155.453 90.3249 -37.7072 -74.3228 267.636 143.513 -40.2037 -10.4235 65.6629 -78.8975 104.577 19.0871 -29.3584 286.559
internal_weight=0 1281 2520 126 1155 975 1457 1063 919 56 359 878 89 735 475 180 134 339 579 406 66 114 48 709 560 358 46 169 387 46
internal_count=3801 1281 2520 126 1155 975 1457 1063 919 56 359 878 89 735 475 180 134 339 579 406 66 114 48 709 560 358 46 169 387 46
is_linear=0
shrinkage=0.1


Tree=2
num_leaves=31
num_cat=0
split_feature=10 45 29 64 67 29 154 5 44 47 43 46 87 24 11 147 3 45 68 46 65 21 79 134 9 123 125 18 30 112
split_gain=1.70645e+09 4.34819e+08 3.41093e+08 6.64422e+07 6.28687e+07 4.16846e+07 3.40139e+07 2.97552e+07 2.65659e+07 2.03405e+07 1.12248e+07 9.29828e+06 8.00726e+06 8.55281e+06 9.43851e+06 7.81107e+06 7.17346e+06 7.13228e+06 6.4901e+06 5.13643e+06 4.49917e+06 4.42593e+06 4.13652e+06 4.11404e+06 3.95603e+06 3.74759e+06 2.81456e+06 2.37327e+06 2.339e+06 2.30317e+06
threshold=1.17013736690525e-10 1.5209154495970223e-11 2.2307203190412545e-20 0.79839690629960736 0.90515339936946615 5.8113751207099723e-20 0.98152468505928525 9.203543510702983e-13 2.8046688598673134e-14 1.8622400843292913e-11 1.1242115583998002e-12 2.5445809426761277e-12 5.3615434390655787 6.5017024666898005 76584.866554857421 0.24171034974912711 0.84422536329992182 4.8446962445389928e-12 355.50000000000006 7.1790582020147027e-13 0.50386094740799858 1.1819100362769185e-09 0.25957359068693159 2.3267705723473191 4.7582669530167414e-07 0.47656525824156454 0.34091844463015286 40.308413403803122 4.8586528492625814e-20 0.22804993078728922
decision_type=2 2 2 2 2 2 2 2 2 2 2 2 2 2 2 2 2 2 2 2 2 2 2 2 2 2 2 2 2 2
left_child=2 4 8 -3 5 -2 9 19 -1 10 -6 25 -10 -14 16 26 -15 20 -17 -4 -7 -19 -16 -11 -12 -9 -5 -27 -21 -25
right_child=1 3 7 15 6 17 -8 11 12 23 24 -13 13 14 22 18 -18 21 -20 28 -22 -23 -24 29 -26 27 -28 -29 -30 -31
leaf_value=-114.86755853048186 -86.850360252743684 384.47653808593753 -62.569978266176975 226.14903320312501 8.8394021987915039 6.7672403027934411 201.56788027445475 -18.687387957849072 -106.63373912736482 97.140152180989588 77.042532573221052 15.563257605214663 -109.6686267355214 -61.812329754749491 -58.770896112351195 155.68795027299362 -2.4857148502183999 110.74919586181642 230.88273620605469 -43.103152476343617 47.997298802328373 62.370336641427073 -86.973724091773079 156.54328215843023 97.073976716329895 20.000044751848495 276.94283854166667 -7.0741997739507099 -27.138481600189209 123.99991781061347
leaf_weight=328 21 36 69 20 20 31 30 354 102 30 231 158 69 179 63 22 23 20 24 145 181 347 298 43 172 35 24 432 250 44
leaf_count=328 21 36 69 20 20 31 30 354 102 30 231 158 69 179 63 22 23 20 24 145 181 347 298 43 172 35 24 432 250 44
internal_value=0 93.1535 -48.1944 269.659 74.1452 51.5515 97.928 -16.538 -91.2078 92.1702 81.963 -6.65209 -80.635 -76.439 -72.3665 223.733 -55.0573 56.5713 194.92 -37.3963 41.9684 65.0068 -82.0519 129.073 85.5919 -10.9274 253.855 -5.04508 -32.9989 140.085
internal_weight=0 1296 2505 126 1170 600 570 1443 1062 540 423 979 734 632 563 90 202 579 46 464 212 367 361 117 403 821 44 467 395 87
internal_count=3801 1296 2505 126 1170 600 570 1443 1062 540 423 979 734 632 563 90 202 579 46 464 212 367 361 117 403 821 44 467 395 87
is_linear=0
shrinkage=0.1


Tree=3
num_leaves=31
num_cat=0
split_feature=10 45 29 64 45 135 5 44 66 65 154 147 43 47 47 84 24 11 3 143 50 68 144 30 123 30 87 8 86 129
split_gain=1.38222e+09 3.52203e+08 2.76478e+08 5.41809e+07 5.14417e+07 3.41048e+07 2.63369e+07 1.98438e+07 1.68205e+07 1.47572e+07 1.1923e+07 6.9076e+06 6.80565e+06 6.59397e+06 6.38655e+06 6.36982e+06 6.96567e+06 8.05781e+06 5.67581e+06 5.6223e+06 5.42239e+06 5.25698e+06 3.53979e+06 3.10581e+06 2.86864e+06 2.86075e+06 2.57837e+06 2.45494e+06 2.39281e+06 2.13704e+06
threshold=1.17013736690525e-10 1.5209154495970223e-11 1.8870858723434668e-20 0.78141472303277526 9.7125311847373806e-12 1.7191388087684116 1.0319759275301335e-12 2.8046688598673134e-14 0.87756037029650946 0.6977250089158219 0.97676814230288644 0.24171034974912711 7.6918966220697549e-13 1.3226019925620919e-12 3.4302238833281135e-12 1.0659679069593164 6.5017024666898005 76584.866554857421 0.84422536329992182 1.049715285745356 1.2353402387193654e-11 355.50000000000006 0.19538439187584197 3.1321866421905971e-19 0.45052487113060657 4.8586528492625814e-20 5.561151908243736 0.88557544554434553 228.50000000000003 0.17937488348224742
decision_type=2 2 2 2 2 2 2 2 2 2 2 2 2 2 2 2 2 2 2 2 2 2 2 2 2 2 2 2 2 2
left_child=2 4 7 -3 5 8 13 -1 12 -10 19 26 28 -4 24 -9 -17 18 29 27 -11 -13 -22 -14 -8 -15 -5 -6 -2 -18
right_child=1 3 6 11 10 -7 14 15 9 20 -12 21 23 25 -16 16 17 -19 -20 -21 22 -23 -24 -25 -26 -27 -28 -29 -30 -31
leaf_value=-103.3808034385123 -19.234329757690432 350.56139705882356 -49.492775656506907 250.99497445913462 74.516849330686171 -72.293900299072263 -16.512182623545328 -92.951751352574718 155.65623153686525 23.60283740117 185.00497276306155 140.1191549127752 45.584438156289281 -37.755085116713794 13.94819913506508 -98.701765198638483 -45.615379653073319 -74.960613800349989 -2.2371439643528155 126.10242997290385 76.906654845206972 207.79446907043459 59.14964747428894 76.133425161000844 -3.4185817278515209 -20.351438485234979 203.23654785156251 103.41595532966383 29.681994934082031 -68.257688437567822
leaf_weight=328 20 34 153 26 53 20 270 137 20 26 20 22 331 134 156 69 99 304 23 71 310 24 176 37 440 320 20 66 20 72
leaf_count=328 20 34 153 26 53 20 270 137 20 26 20 22 331 134 156 69 99 304 23 71 310 24 176 37 440 320 20 66 20 72
internal_value=0 83.8382 -43.375 242.693 66.7307 56.9236 -15.5673 -83.0656 59.6729 71.3876 111.563 202.829 44.3979 -31.5388 -4.37246 -73.6005 -68.9248 -64.7991 -48.8759 103.832 68.0958 175.428 70.4761 48.6559 -8.39784 -25.4882 230.23 90.5449 5.22383 -55.149
internal_weight=0 1296 2505 126 1170 960 1473 1032 940 532 210 92 408 607 866 704 567 498 194 190 512 46 486 368 710 454 46 119 40 171
internal_count=3801 1296 2505 126 1170 960 1473 1032 940 532 210 92 408 607 866 704 567 498 194 190 512 46 486 368 710 454 46 119 40 171
is_linear=0
shrinkage=0.1


Tree=4
num_leaves=31
num_cat=0
split_feature=10 46 29 47 144 47 44 18 63 5 30 146 110 79 22 89 136 46 46 76 9 60 84 19 115 20 104 123 3 137
split_gain=1.12146e+09 2.69703e+08 2.52321e+08 4.21386e+07 4.04035e+07 2.69295e+07 1.79934e+07 1.47312e+07 1.73107e+07 1.28317e+07 1.07169e+07 7.59352e+06 6.91762e+06 6.09667e+06 6.53473e+06 5.69215e+06 4.45983e+06 3.79611e+06 3.0235e+06 3.01282e+06 2.98379e+06 2.88883e+06 2.83139e+06 2.76553e+06 2.10025e+06 2.04978e+06 2.09954e+06 1.90417e+06 1.89219e+06 1.80563e+06
threshold=1.3921957784143386e-10 2.2428024478236636e-11 2.4982484807779848e-20 1.7920227911790688e-11 0.21392061182742841 3.2691016173836263e-12 2.8046688598673134e-14 42.977761455307935 0.67983542185153645 9.203543510702983e-13 2.9702439218767929e-19 0.24822704747536845 0.15127384926424473 0.86629183603291637 6.529762711061017 25.723996958384863 2.4003707497108961 7.1790582020147027e-13 1.4207268840579219e-11 0.5508333333333334 4.5839562543281725e-07 0.88043975246768458 1.2676493125917423 43.806757066903273 292.50000000000006 3.6859468455862233e-11 0.32497836886946457 0.75980190272995551 -0.12285993364808222 30.661779448298468
decision_type=2 2 2 2 2 2 2 2 2 2 2 2 2 2 2 2 2 2 2 2 2 2 2 2 2 2 2 2 2 2
left_child=2 3 6 7 12 9 -1 -2 10 17 21 -5 24 14 -8 28 -13 -4 -18 -7 -12 -9 25 -11 -3 -17 -27 -25 -16 -28
right_child=1 4 5 11 -6 19 13 8 -10 23 20 16 -14 -15 15 22 18 -19 -20 -21 -22 -23 -24 27 -26 26 29 -29 -30 -31
leaf_value=-93.100645395760125 -21.02897965113322 193.9544762311663 -51.785057841867641 167.46377883911134 329.72332721578664 29.961804644814851 -92.007510033969226 12.68992783682687 150.3482955169678 20.177422794218987 58.51095811167071 66.625799639471651 144.53765529719269 -81.499115292779337 -49.19916770935059 -54.573310802293861 77.945351918538421 -26.309236306394453 117.25221174707954 8.8501271265524419 74.288340483040642 46.077613788363578 -66.798318383001515 -14.239131130309815 231.47590144230773 -47.701823508902777 -1.2676061948140465 -3.9784293661413552 -73.244312994215235 -34.427558189172011
leaf_weight=329 24 35 69 20 29 116 58 28 20 31 248 29 22 174 40 92 24 384 106 162 232 348 62 470 26 73 24 294 180 52
leaf_count=329 24 35 69 20 29 116 58 28 20 31 248 29 22 174 40 92 24 384 106 162 232 348 62 470 26 73 24 294 180 52
internal_value=0 80.4094 -36.6926 65.0779 228.112 -10.487 -73.5835 56.2647 58.3823 -16.7568 56.2336 109.39 192.61 -65.0786 -60.1609 -56.6292 102.085 -30.1897 109.996 17.6593 66.1367 43.5913 -47.7397 -9.10258 209.947 -42.8367 -35.5899 -10.2906 -68.8725 -23.956
internal_weight=0 1191 2610 1079 112 1526 1084 900 876 1248 856 179 83 755 581 523 159 453 130 278 480 376 303 795 61 241 149 764 220 76
internal_count=3801 1191 2610 1079 112 1526 1084 900 876 1248 856 179 83 755 581 523 159 453 130 278 480 376 303 795 61 241 149 764 220 76
is_linear=0
shrinkage=0.1


Tree=5
num_leaves=31
num_cat=0
split_feature=10 44 29 127 9 46 85 42 44 5 54 10 150 87 24 11 3 115 37 79 46 144 3 148 63 62 80 22 112 56
split_gain=9.08381e+08 2.1972e+08 2.0438e+08 3.97137e+07 2.92343e+07 2.19154e+07 2.1386e+07 1.83046e+07 1.45746e+07 1.08175e+07 9.22949e+06 8.28096e+06 5.57266e+06 5.31491e+06 4.82293e+06 4.70386e+06 4.12203e+06 3.99041e+06 3.32111e+06 3.31058e+06 2.93015e+06 2.7413e+06 2.45565e+06 2.448e+06 2.14034e+06 2.12092e+06 1.87401e+06 1.59765e+06 1.44761e+06 1.43553e+06
threshold=1.3921957784143386e-10 5.9027307556946279e-12 2.4982484807779848e-20 298.50000000000006 4.5839562543281725e-07 2.5445809426761277e-12 3.1585562400687057 3.7529368701699056e-13 2.8046688598673134e-14 8.9513339408717292e-13 6.3968935785941501e-12 3.995059452630949e-10 0.64750000000000008 5.3511708898399339 6.5017024666898005 76584.866554857421 0.84422536329992182 280.50000000000006 1.0391151565325128e-14 0.25957359068693159 7.1790582020147027e-13 0.054349576531062559 0.89728769502122663 0.69289950422361379 0.37820493719741227 0.58776162454966663 0.037565075646970758 7.1069904878740218 0.22618895999257826 0.55560512762675696
decision_type=2 2 2 2 2 2 2 2 2 2 2 2 2 2 2 2 2 2 2 2 2 2 2 2 2 2 2 2 2 2
left_child=2 4 8 12 10 9 7 -6 -1 20 -2 -9 17 -10 -15 16 -16 -3 -12 -17 -4 -13 -23 29 -7 -19 -24 -25 -28 -11
right_child=1 3 5 -5 6 24 -8 11 13 23 18 21 -14 14 15 19 -18 25 -20 -21 -22 22 26 27 -26 -27 28 -29 -30 -31
leaf_value=-83.790580717046225 -22.917512454986575 142.530215921402 -46.606552975419646 293.46339683532716 -18.410542224702379 31.886029346675087 173.73462950966575 66.590585577392574 -79.562494542048526 -28.974716856041734 37.810439181857639 130.37558746337891 126.13011620133011 -80.215045917897996 -45.063361701965334 -40.323777674390129 -0.10573257778001868 174.16175855553669 52.627595094192863 -63.552361257186789 -24.10591327380337 68.961842062813901 73.984681243896489 23.107407402992251 11.585654945439764 216.65708872477214 129.79173944646661 -3.6320231101556142 97.855740051269535 -10.946701435106142
leaf_weight=329 20 20 69 32 21 73 22 250 104 49 270 21 27 69 180 77 23 23 344 302 359 35 20 24 180 24 22 324 40 448
leaf_count=329 20 20 69 32 21 73 22 250 104 49 270 21 27 69 180 77 23 23 344 302 359 35 20 24 180 24 22 324 40 448
internal_value=0 72.3685 -33.0233 197.242 57.5948 -9.43831 77.6893 72.523 -66.2251 -14.7808 43.9343 77.4447 164.485 -58.5708 -55.2172 -52.2536 -39.9696 179.942 46.1119 -58.8331 -27.7334 97.1079 91.1368 -8.22021 17.4431 195.862 100.602 -1.78792 109.188 -12.7241
internal_weight=0 1191 2610 126 1065 1526 431 409 1084 1273 634 388 94 755 651 582 203 67 614 379 428 138 117 845 253 47 82 348 62 497
internal_count=3801 1191 2610 126 1065 1526 431 409 1084 1273 634 388 94 755 651 582 203 67 614 379 428 138 117 845 253 47 82 348 62 497
is_linear=0
shrinkage=0.1


Tree=6
num_leaves=31
num_cat=0
split_feature=10 44 30 145 115 47 5 44 29 5 45 20 22 132 52 30 82 129 153 18 50 80 36 64 10 62 64 144 125 104
split_gain=7.35789e+08 1.77973e+08 1.65718e+08 3.39222e+07 2.37752e+07 2.16108e+07 1.68318e+07 1.31522e+07 1.17572e+07 7.87578e+06 6.7323e+06 5.22714e+06 5.35978e+06 4.75946e+06 3.29704e+06 3.1388e+06 2.9706e+06 3.09639e+06 2.60772e+06 2.31979e+06 2.11954e+06 2.01529e+06 2.17495e+06 1.95765e+06 1.91012e+06 1.8217e+06 1.68746e+06 1.61078e+06 1.60127e+06 1.59726e+06
threshold=1.3921957784143386e-10 5.9027307556946279e-12 3.4130487867955383e-20 0.032500000000000008 272.50000000000006 1.4907542593337693e-11 1.9213160248130813e-12 2.8046688598673134e-14 9.7182933574783716e-20 6.1463384112349948e-13 1.0995337378991694e-11 2.9374622651256438e-11 6.5836590803771511 0.64916666666666678 4.1037326772642836e-12 7.155733912122655e-20 0.82487410900774816 0.19765314034795164 33.218337487841261 41.661058177763024 1.7708787890459723e-11 0.037939927980721967 4.6306072990511121e-14 0.85804325841760742 5.3118684398945362e-10 0.33022759468473767 0.85276671788781278 0.13882988686290806 0.32203836907813749 0.28856538094712864
decision_type=2 2 2 2 2 2 2 2 2 2 2 2 2 2 2 2 2 2 2 2 2 2 2 2 2 2 2 2 2 2
left_child=2 4 7 -3 -2 8 9 -1 -6 -4 18 -9 -13 21 20 -11 17 23 29 -17 -10 22 -5 -14 28 -8 -16 -22 -12 -7
right_child=1 3 6 13 5 10 25 11 14 15 24 12 16 -15 26 19 -18 -19 -20 -21 27 -23 -24 -25 -26 -27 -28 -29 -30 -31
leaf_value=-75.411523381844844 159.83692474365236 268.34918547599545 -33.123066632541615 198.57490844726564 -32.699560685591265 61.110063162025497 30.567680321970297 -63.544908983434141 28.382826166004659 -19.465068315720757 91.512568175117934 -70.617861829330408 -35.252741802760532 107.10507802096282 44.63752189834765 10.63768412537045 -58.604398234506675 -52.372949727376309 82.429120503301206 -8.1539114180942374 70.621117837088448 141.87237370808919 151.9385092163086 -5.8765054626464845 112.16676567077637 10.864606076077477 61.512489037764709 39.581265378579864 58.883824357532319 41.126017646069798
leaf_weight=329 20 31 162 20 22 163 62 253 209 242 53 77 245 22 269 72 89 111 46 750 21 33 20 25 30 193 76 82 21 53
leaf_count=329 20 31 162 20 22 163 62 253 209 242 53 77 245 22 269 72 89 111 46 750 21 33 20 25 30 193 76 82 21 53
internal_value=0 65.1316 -29.721 177.517 51.8353 49.7683 -7.72042 -58.5809 39.2103 -12.5824 69.3554 -51.6593 -46.162 147.878 41.6182 -9.45495 -42.1554 -38.3129 60.8105 -6.50793 34.169 160.165 175.257 -32.5327 90.882 15.6552 48.3549 45.9098 82.2531 56.2066
internal_weight=0 1191 2610 126 1065 1045 1481 1129 679 1226 366 800 547 95 657 1064 470 381 262 822 312 73 40 270 104 255 345 103 74 216
internal_count=3801 1191 2610 126 1065 1045 1481 1129 679 1226 366 800 547 95 657 1064 470 381 262 822 312 73 40 270 104 255 345 103 74 216
is_linear=0
shrinkage=0.1


Tree=7
num_leaves=31
num_cat=0
split_feature=10 44 29 64 4 47 5 29 48 46 88 45 47 87 22 18 36 154 68 122 81 30 126 30 50 10 36 48 30 76
split_gain=5.95989e+08 1.44159e+08 1.34595e+08 2.98293e+07 2.17946e+07 1.79519e+07 1.62281e+07 9.78644e+06 8.3888e+06 6.1619e+06 5.45228e+06 4.21954e+06 4.06774e+06 3.79269e+06 3.1982e+06 3.36637e+06 3.12512e+06 2.8139e+06 2.31204e+06 2.30119e+06 2.28484e+06 2.1131e+06 2.07346e+06 2.05945e+06 1.88067e+06 1.47921e+06 1.43844e+06 1.4232e+06 1.39668e+06 1.32112e+06
threshold=1.3921957784143386e-10 5.9027307556946279e-12 1.8870858723434668e-20 0.7552793476918972 2.0727111015270988e-12 1.4907542593337693e-11 1.1604148100264057e-12 9.7182933574783716e-20 5.4616648870391399e-14 3.4137241516242141e-12 116.99741595111372 2.2534731102569219e-11 1.3226019925620919e-12 5.4446486796830937 6.529762711061017 37.007558647022968 1.4471483627278635e-14 0.9818036064240494 274.50000000000006 0.27772764056930804 0.59353024363221885 3.960526310831498e-19 0.27191124504322856 5.4584534104703942e-20 3.0419960546941611e-11 6.2020027496061188e-11 1.2310621641187332e-15 4.6682802672303532e-12 2.5257716388967952e-19 0.69583333333333341
decision_type=2 2 2 2 2 2 2 2 2 2 2 2 2 2 2 2 2 2 2 2 2 2 2 2 2 2 2 2 2 2
left_child=2 4 8 -3 5 7 12 -2 -1 19 21 20 -4 -10 -15 18 27 -13 22 -8 -5 -7 -16 -14 -12 -21 -24 -9 -18 -11
right_child=1 3 6 11 -6 10 9 16 13 29 24 17 23 14 15 -17 28 -19 -20 25 -22 -23 26 -25 -26 -27 -28 -29 -30 -31
leaf_value=-67.872707090986538 -33.901155014038089 244.94168169575357 -33.511198558192099 138.84070638020833 150.05697895050048 46.063630193822526 -11.183126313555732 22.237562525035528 -64.522651416499443 24.63598028309325 71.424159696208889 129.76218988327753 -24.45229831850806 -67.086258074442554 -39.122822050614793 -49.250783779047715 32.535489013820019 181.52994675409229 -43.45656172252837 -2.0567870937670985 96.390374898910522 64.038106418129004 7.7917474975585934 -11.405767864105748 99.045188629932909 10.809064782907566 -23.258904761237069 37.483085868428056 46.031998203913375 1.1138324197133382
leaf_weight=329 20 31 155 21 20 136 219 151 123 117 67 21 172 60 44 316 103 21 105 350 32 126 25 408 39 120 37 103 300 30
leaf_count=329 20 31 155 21 20 136 219 151 123 117 67 21 172 60 44 316 103 21 105 350 32 126 25 408 39 120 37 103 300 30
internal_value=0 58.6185 -26.7489 159.766 46.6518 44.6727 -8.28113 35.0094 -54.6727 1.24872 62.4501 131.971 -19.1205 -48.5561 -45.2105 -42.7199 37.1071 155.646 -32.939 -2.71682 113.21 54.7078 -22.5207 -15.2747 81.5866 1.22811 -10.7385 28.4198 42.5825 19.8355
internal_weight=0 1191 2610 126 1065 1045 1571 677 1039 836 368 95 735 710 587 527 657 42 211 689 53 262 106 580 106 470 62 254 403 147
internal_count=3801 1191 2610 126 1065 1045 1571 677 1039 836 368 95 735 710 587 527 657 42 211 689 53 262 106 580 106 470 62 254 403 147
is_linear=0
shrinkage=0.1


Tree=8
num_leaves=31
num_cat=0
split_feature=10 46 55 153 115 45 47 69 53 52 10 30 64 56 18 110 136 44 99 29 20 5 99 40 22 36 22 85 30 125
split_gain=4.82751e+08 1.16819e+08 1.09328e+08 2.56828e+07 1.94787e+07 1.6916e+07 1.16638e+07 9.40493e+06 8.99547e+06 6.17735e+06 5.47548e+06 5.15844e+06 4.18715e+06 3.91211e+06 7.13784e+06 3.50731e+06 3.43497e+06 3.35674e+06 2.24785e+06 2.24629e+06 2.0782e+06 2.02018e+06 1.68032e+06 1.62102e+06 1.60828e+06 1.58497e+06 1.50792e+06 1.15752e+06 1.01268e+06 993679
threshold=1.3921957784143386e-10 2.2428024478236636e-11 4.8936513590829567e-12 31.077041497887784 271.50000000000006 9.0965373664730927e-12 3.2691016173836263e-12 346.50000000000006 3.696589649511199e-13 1.2195196928161703e-12 5.3118684398945362e-10 3.6448409463615256e-19 0.76121199269228979 0.82914799723911925 32.776335901120383 0.15127384926424473 2.3827678013822324 2.221744777804885e-13 0.037500000000000006 4.2239169264033849e-19 2.9081745943951458e-11 6.1463384112349948e-13 0.10250000000000002 8.1781923211693333e-15 7.2620562184401036 4.6306072990511121e-14 7.1024875340564568 3.1405742117295619 2.2269764520812027e-19 0.31226669812480573
decision_type=2 2 2 2 2 2 2 2 2 2 2 2 2 2 2 2 2 2 2 2 2 2 2 2 2 2 2 2 2 2
left_child=2 4 8 -3 -2 7 9 12 13 21 16 24 -6 -1 -15 25 -7 -10 -16 -13 -8 -4 29 -12 -9 -5 -11 -22 -26 -18
right_child=1 3 6 15 5 10 20 11 17 26 23 19 -14 14 18 -17 22 -19 -20 -21 27 -23 -24 -25 28 -27 -28 -29 -30 -31
leaf_value=-60.720487578018862 140.43562336921693 227.3704509119834 -27.514086548675451 147.59512051669034 -43.522090868949896 30.873510012419327 -15.561013865470887 4.6698096622120255 -43.137478532393772 20.062871337890627 75.473198654858962 46.459098930847951 14.141479601579555 -59.530453613281253 0.11046284484863281 86.263279030539778 47.774499130249026 -25.482087654291199 -33.785013405217065 79.935055541992199 11.928590017557145 -14.200311359064921 76.251114287199798 113.901170421782 24.736416662100591 114.58152389526367 -4.9623290942214533 29.204373621940615 34.903408136869736 64.175837105764472
leaf_weight=414 20 31 169 33 20 46 24 22 288 25 23 156 34 150 25 22 77 172 90 23 202 350 54 21 132 26 653 48 380 71
leaf_count=414 20 31 169 33 20 46 24 22 288 25 23 156 34 150 25 22 77 172 90 23 202 350 54 21 132 26 653 48 380 71
internal_value=0 52.7566 -24.074 149.965 42.6665 40.82 -6.06451 33.0218 -47.333 -10.3248 61.3037 36.0692 -7.2154 -54.6476 -45.1602 120.34 55.5357 -36.5359 -26.4164 50.7605 12.5472 -18.5356 61.1519 93.8138 31.1446 133.047 -4.03957 15.2455 32.2822 55.6427
internal_weight=0 1191 2610 112 1079 1059 1471 767 1139 1197 292 713 54 679 265 81 248 460 115 179 274 519 202 44 534 59 678 250 512 148
internal_count=3801 1191 2610 112 1079 1059 1471 767 1139 1197 292 713 54 679 265 81 248 460 115 179 274 519 202 44 534 59 678 250 512 148
is_linear=0
shrinkage=0.1


Tree=9
num_leaves=31
num_cat=0
split_feature=10 45 55 153 49 103 81 47 55 50 52 20 151 44 100 30 77 72 7 33 72 3 141 65 18 54 151 93 9 144
split_gain=3.91028e+08 9.49218e+07 8.85559e+07 2.4629e+07 1.95034e+07 1.90383e+07 1.36394e+07 9.46528e+06 7.37622e+06 6.66265e+06 5.16215e+06 4.52838e+06 3.49561e+06 3.21431e+06 3.00203e+06 2.67255e+06 2.62822e+06 2.31963e+06 2.18042e+06 1.80669e+06 1.77192e+06 1.5481e+06 2.47886e+06 1.5343e+06 1.20673e+06 1.06455e+06 1.04641e+06 1.00873e+06 871538 850195
threshold=1.3921957784143386e-10 1.8835606981098968e-11 4.8936513590829567e-12 31.077041497887784 1.0004972613863191e-10 0.19750000000000004 0.71467161033077276 3.3393002672036893e-12 5.6668146755844098e-13 1.75505866803225e-11 1.2195196928161703e-12 4.9078204992322844e-11 270.50000000000006 2.1224185841369713e-13 -0.20506849424160217 3.5576679302993847e-19 1.7793284684796857 0.54558172480299116 6.7066884350609387e-08 2.357605662288814e-13 0.8203631780163565 0.84422536329992182 0.18251430665881005 0.74823522826998279 40.308413403803122 1.0719391380959093e-11 276.50000000000006 0.22416666666666671 3.2985031792484419e-07 0.077562731615857264
decision_type=2 2 2 2 2 2 2 2 2 2 2 2 2 2 2 2 2 2 2 2 2 2 2 2 2 2 2 2 2 2
left_child=2 4 8 -3 9 6 16 10 14 11 20 -2 -5 -10 -1 29 27 -14 -18 -13 -4 -16 -23 25 -12 -9 -17 -6 -26 -11
right_child=1 3 7 12 5 -7 -8 23 13 15 24 19 17 -15 21 26 18 -19 -20 -21 -22 22 -24 -25 28 -27 -28 -29 -30 -31
leaf_value=-30.371937005241193 -22.363587379455566 221.02679007393974 -24.320462272564569 77.047844522649598 37.762726306915283 162.319697265625 -16.284944897606263 8.5711159095278493 -39.140522777947197 51.570027359672217 13.826912581293207 19.351364503032286 145.40627206655651 -21.53983467010681 -53.774312168037255 43.016574775340949 71.882945946284707 101.28667547052557 109.66731458391462 32.840223753910799 -12.238149452317845 -49.527454514555878 -16.785550462045979 -11.237072056990405 -8.5112904592996124 22.184006749629976 55.761439810447328 67.773561168852311 -1.1584980266074003 31.336913267028667
leaf_weight=77 20 28 192 22 24 20 21 135 274 23 38 190 26 167 499 172 56 22 21 208 330 91 31 26 296 100 103 21 354 214
leaf_count=77 20 28 192 22 24 20 21 135 274 23 38 190 26 167 499 172 56 22 21 208 330 91 31 26 296 100 103 21 354 214
internal_value=0 47.481 -21.6666 141.762 39.0276 70.9351 58.154 -5.45806 -42.5997 33.4352 -9.18359 24.0676 110.056 -32.4754 -48.9962 41.083 70.9673 125.185 82.1878 26.4008 -16.6822 -51.3055 -41.2078 11.8136 -3.49423 14.3638 47.7901 51.7678 -4.50685 33.3005
internal_weight=0 1191 2610 98 1093 163 143 1471 1139 930 1210 418 70 441 698 512 122 48 77 398 522 621 122 261 688 235 275 45 650 237
internal_count=3801 1191 2610 98 1093 163 143 1471 1139 930 1210 418 70 441 698 512 122 48 77 398 522 621 122 261 688 235 275 45 650 237
is_linear=0
shrinkage=0.1


Tree=10
num_leaves=31
num_cat=0
split_feature=10 63 2 44 47 56 53 47 127 153 52 151 45 56 18 5 1 66 49 99 22 77 20 42 40 88 134 53 147 22
split_gain=3.16733e+08 7.75553e+07 7.18695e+07 4.56065e+07 8.34391e+06 7.43943e+06 6.96387e+06 6.86869e+06 4.64471e+06 3.68166e+06 3.56671e+06 2.88673e+06 2.91284e+06 2.81579e+06 5.05804e+06 2.76547e+06 2.32121e+06 2.19967e+06 2.04163e+06 1.90569e+06 1.89033e+06 1.77648e+06 1.72036e+06 1.54432e+06 1.25416e+06 1.14476e+06 1.13603e+06 1.0811e+06 1.03254e+06 1.00658e+06
threshold=1.3921957784143386e-10 0.94587490424675502 6.198624885811281e-07 5.3523640348896267e-12 1.4493080348790857e-11 0.79292699967913749 3.696589649511199e-13 3.2691016173836263e-12 298.50000000000006 33.200262902834361 1.2195196928161703e-12 269.50000000000006 2.1569369726770186e-11 0.82914799723911925 32.776335901120383 3.7902739005887253e-13 598562869.50662553 0.89697569879989347 9.1777609474961965e-11 0.037500000000000006 7.4449889809835055 1.7842907523310299 2.7801600255090739e-11 6.2341913126525115e-14 4.6374838896426877e-15 116.84253726510165 2.4441293431158035 1.9132472795889331e-11 0.28384028794892618 7.1069904878740218
decision_type=2 2 2 2 2 2 2 2 2 2 2 2 2 2 2 2 2 2 2 2 2 2 2 2 2 2 2 2 2 2
left_child=2 3 6 4 5 -2 13 10 11 17 23 16 -13 -1 -15 -8 -5 20 -11 -16 28 24 -9 -4 -7 -19 -17 -23 -6 -12
right_child=1 -3 7 8 9 21 15 22 -10 18 29 12 -14 14 19 26 -18 25 -20 -21 -22 27 -24 -25 -26 -27 -28 -29 -30 -31
leaf_value=-49.456486164774873 -35.185618553161625 207.1930696759905 -27.702334044730829 46.992407443306661 29.225639508125631 12.9235512352024 -36.605032930374151 -17.017827881466257 140.45469573974611 51.365719653042881 16.67389273071289 78.932707630504268 128.37298971322866 -48.352160156250001 3.9478125305175782 -19.237969663545684 88.926797577829078 40.131187400522158 85.372297198955835 -27.261502756542633 0.28407554626464843 32.561734577941898 12.131961730392431 -11.91573792429959 26.230487977050423 56.946905633958721 -38.336224195692274 55.73383887608847 54.247947540283207 -3.7799522711569447
leaf_weight=414 20 28 73 22 94 87 240 22 20 55 25 22 26 150 25 231 33 129 26 90 20 125 254 410 381 59 36 24 20 640
leaf_count=414 20 28 73 22 94 87 240 22 20 55 25 22 26 150 25 231 33 129 26 90 20 125 254 410 381 59 36 24 20 640
internal_value=0 42.7329 -19.4999 38.7734 31.9632 24.8387 -37.6829 -4.35598 96.3555 43.2244 -7.76136 87.7926 105.713 -44.3043 -36.2553 -28.8152 72.153 38.4306 62.2814 -20.4769 28.6407 26.7844 9.80843 -14.3017 23.7568 45.4085 -21.813 36.2942 33.6155 -3.01101
internal_weight=0 1191 2610 1163 1040 637 1186 1424 123 403 1148 103 48 679 265 507 55 322 81 115 134 617 276 483 468 188 267 149 114 665
internal_count=3801 1191 2610 1163 1040 637 1186 1424 123 403 1148 103 48 679 265 507 55 322 81 115 134 617 276 483 468 188 267 149 114 665
is_linear=0
shrinkage=0.1


Tree=11
num_leaves=31
num_cat=0
split_feature=10 44 55 115 152 69 50 10 30 42 9 4 84 41 87 154 130 24 18 3 58 107 21 73 135 37 85 60 84 119
split_gain=2.56809e+08 6.69338e+07 5.12481e+07 1.79458e+07 1.44597e+07 1.431e+07 9.23628e+06 5.85397e+06 3.85797e+06 3.84905e+06 2.88398e+06 2.51507e+06 1.77693e+06 1.72162e+06 1.67111e+06 1.66039e+06 2.28148e+06 1.64621e+06 1.94978e+06 1.62757e+06 1.60548e+06 1.36016e+06 1.29193e+06 1.19805e+06 1.05893e+06 1.01463e+06 962462 894604 827171 707497
threshold=1.17013736690525e-10 5.9027307556946279e-12 3.1059690681588139e-12 296.50000000000006 0.45337985051247237 280.50000000000006 2.5516793600271141e-11 4.0090777738092682e-11 8.9928423115566025e-20 8.0779300495183743e-15 4.3188378504224295e-07 1.5892706085424512e-12 1.0659679069593164 2.3460557673936103e-16 5.6449065350416898 0.95912240349760591 0.37687153131486895 6.5017024666898005 37.007558647022968 0.84422536329992182 7.8719847525009882e-20 0.3499335252102504 1.3602396907439705e-09 113.50000000000001 1.703220666843227 1.0391151565325128e-14 3.1150950024950554 0.75807229634273554 1.2318725219537694 19920.500000000004
decision_type=2 2 2 2 2 2 2 2 2 2 2 2 2 2 2 2 2 2 2 2 2 2 2 2 2 2 2 2 2 2
left_child=2 4 9 11 5 -2 8 13 -7 -1 25 14 -11 -4 21 16 26 -14 19 28 24 -3 23 -9 -8 -10 29 -15 -19 -12
right_child=1 3 7 -5 -6 6 20 22 10 12 15 -13 17 27 -16 -17 -18 18 -20 -21 -22 -23 -24 -25 -26 -27 -28 -29 -30 -31
leaf_value=-44.792080651260008 -34.875453013843959 85.672484970092782 -28.718636613143119 162.81958947432668 110.91100399721236 -15.150253229555876 43.64367672810188 -5.0023483760209579 16.834791227680377 -42.014470837721184 14.957628168710849 52.16885160363239 -43.330563863118492 -17.485679495786606 67.436081931704564 53.952740663470649 -2.3055665504932406 -19.403541409039331 -32.273653515891446 5.5659692681354027 76.461215246291388 120.98267349243166 4.0478602213646049 19.86489332675934 68.360521545410151 25.859840688705447 36.563431087840691 -8.8892612152116399 -36.991105235706677 30.427122504756138
leaf_weight=328 36 24 76 38 21 23 130 619 259 134 41 23 72 211 21 33 20 141 296 23 21 20 268 20 20 240 220 284 33 106
leaf_count=328 36 24 76 38 21 23 130 619 259 134 41 23 72 211 21 33 20 141 296 23 21 20 268 20 20 240 220 284 33 106
internal_value=0 36.1374 -18.6963 105.389 28.6796 27.1767 29.1837 -6.77332 25.3025 -35.855 26.3149 80.589 -31.6614 -14.7052 90.6454 32.421 30.585 -29.206 -27.1432 -19.4345 50.5648 101.723 -1.77986 -4.22403 46.9393 21.1755 32.3774 -12.5536 -22.7391 26.1125
internal_weight=0 1296 2505 126 1170 1149 1113 1478 942 1027 919 88 699 571 65 420 387 565 493 197 171 44 907 639 150 499 367 495 174 147
internal_count=3801 1296 2505 126 1170 1149 1113 1478 942 1027 919 88 699 571 65 420 387 565 493 197 171 44 907 639 150 499 367 495 174 147
is_linear=0
shrinkage=0.1


Tree=12
num_leaves=31
num_cat=0
split_feature=10 63 55 45 29 49 1 48 63 118 10 144 56 18 125 21 110 10 61 66 153 82 36 7 128 73 143 130 73 104
split_gain=2.0811e+08 5.57992e+07 4.09197e+07 3.20079e+07 9.33929e+06 7.32939e+06 4.52298e+06 4.44832e+06 3.18227e+06 3.40428e+06 3.17163e+06 1.96474e+06 1.87028e+06 3.49565e+06 1.74986e+06 1.74052e+06 1.68375e+06 1.4901e+06 1.46898e+06 1.37662e+06 1.32348e+06 1.30711e+06 1.2725e+06 1.24444e+06 1.20815e+06 1.10788e+06 1.06426e+06 863336 836935 780556
threshold=1.1336313379416674e-10 0.94587490424675502 5.8699566917976147e-12 1.1265912043032019e-11 5.5600664452714332e-20 1.6353758467675669e-10 25989862539.360645 4.8519040184907763e-12 0.7212333739104656 0.39594243024330211 4.2970631549340788e-11 0.19844291721893678 0.82914799723911925 33.159006302766478 0.3295598516702099 1.4285770634690164e-09 0.36732652160587548 1.4786945606754103e-11 0.9572315847675098 0.90069773210077042 33.80910692067372 0.7953981214982121 1.0705970645878099e-15 6.0427221614405099e-08 0.22519231404120796 104.50000000000001 1.0620039052066939 0.35906910823791299 107.50000000000001 0.4307917548813015
decision_type=2 2 2 2 2 2 2 2 2 2 2 2 2 2 2 2 2 2 2 2 2 2 2 2 2 2 2 2 2 2
left_child=2 3 6 4 -2 14 17 16 9 27 22 15 -8 -14 23 -9 18 -1 20 29 21 -6 -4 -5 -12 -17 -19 -7 -26 -15
right_child=1 -3 10 5 7 8 12 11 -10 -11 24 -13 13 19 -16 25 -18 26 -20 -21 -22 -23 -24 -25 28 -27 -28 -29 -30 -31
leaf_value=-30.076616031747115 -42.098667560924184 169.41694434757892 -22.090854013533821 46.223069776807513 13.759792403848667 77.088793087005627 -39.953101800522717 47.625739084163186 116.06037996673584 39.532806777954107 -4.7925336119878095 21.479991083372209 -39.032485761140521 -29.613033803304035 21.844687899676238 27.921421491117037 -10.761263006383723 -16.330815390178138 43.396758619944258 8.1028754806518553 22.830683051185176 -11.848711180686951 -8.7172364038293093 75.282387084960945 2.0242483536129803 44.225009225339306 -34.283555562872635 102.48871247664744 23.027787489891054 -10.945882012943429
leaf_weight=190 22 29 84 56 212 32 424 71 25 20 386 210 152 48 22 279 22 252 21 20 176 22 465 20 369 49 38 23 20 42
leaf_count=190 22 29 84 56 212 32 424 71 25 20 386 210 152 48 22 279 22 252 21 20 176 22 465 20 369 49 38 23 20 42
internal_value=0 32.2475 -16.9785 29.1446 22.3915 66.116 -30.6388 23.7274 85.1625 74.8632 -4.94831 29.3092 -35.8486 -29.2062 46.6808 33.4299 16.2234 -23.1931 17.6008 -15.6281 16.2795 11.3522 -10.7635 53.8703 -0.828922 30.357 -18.6832 87.7106 3.10412 -20.9017
internal_weight=0 1311 2490 1282 1084 198 1166 1062 100 75 1324 609 686 262 98 399 453 480 431 110 410 234 549 76 775 328 290 55 389 90
internal_count=3801 1311 2490 1282 1084 198 1166 1062 100 75 1324 609 686 262 98 399 453 480 431 110 410 234 549 76 775 328 290 55 389 90
is_linear=0
shrinkage=0.1


Tree=13
num_leaves=31
num_cat=0
split_feature=10 63 29 45 69 30 50 53 49 36 5 46 5 75 145 56 18 84 54 128 99 21 18 30 75 131 64 24 49 84
split_gain=1.68723e+08 4.71041e+07 4.01619e+07 2.32114e+07 4.88857e+06 4.60489e+06 4.54693e+06 4.39831e+06 3.22164e+06 2.23155e+06 1.82595e+06 1.57144e+06 1.55947e+06 1.54819e+06 1.94132e+06 1.52518e+06 2.77843e+06 1.51186e+06 1.51904e+06 1.30481e+06 1.29592e+06 1.24367e+06 1.08957e+06 1.06545e+06 998474 734055 725595 786155 723524 640719
threshold=1.4563952773755696e-10 0.94587490424675502 3.9901322756876322e-20 1.4189154715573013e-11 239.50000000000003 3.6998465935889036e-19 5.6635103619048037e-12 5.106599203956807e-13 3.1976328952104119e-10 1.0705970645878099e-15 3.7902739005887253e-13 1.4633259816120493e-11 1.413606693699479e-11 1.7812095235967262 0.065833333333333341 0.82914799723911925 33.159006302766478 1.178144288889162 2.4259014624717338e-11 0.16156386651723506 0.037500000000000006 1.2855352209168694e-09 41.987310125406985 2.2708386519854091e-19 1.7622854478502292 0.032408601179301229 0.83248259817735493 7.40657768554789 5.6950094470687331e-11 1.3307543626908223
decision_type=2 2 2 2 2 2 2 2 2 2 2 2 2 2 2 2 2 2 2 2 2 2 2 2 2 2 2 2 2 2
left_child=2 3 7 4 -2 23 9 15 12 -4 -9 17 -5 14 -14 22 -17 18 -7 -13 -18 -11 -1 -6 -25 -21 27 -8 -26 -12
right_child=1 -3 6 8 5 11 26 10 -10 21 29 19 13 -15 -16 16 20 -19 -20 25 -22 -23 -24 24 28 -27 -28 -29 -30 -31
leaf_value=-37.844083502149459 -20.983537940184277 159.89996741158623 -20.102406180306769 39.359784997027859 12.433773066550494 29.794044643864972 10.94773574831957 -26.779449522951815 105.28693222318378 -5.6311373601842858 -13.165325436685601 68.127896003723137 101.25928066087806 51.981777060031895 60.603003247578947 -35.129237305490598 6.1974879185358684 4.3201564607166105 56.185211626688641 46.455473537445073 -19.985962913277447 2.0457534079345172 -23.245420061531718 14.778970918102543 20.629729143104985 22.991861486434939 -2.891941492485278 31.927547836303713 30.121643623365028 -27.416774686177572
leaf_weight=383 24 28 89 23 160 239 167 235 21 813 255 20 23 32 24 152 24 21 24 40 89 285 59 138 177 20 33 20 147 36
leaf_count=383 24 28 89 23 160 239 167 235 21 813 255 20 23 32 24 152 24 21 24 40 89 285 59 138 177 20 33 20 147 36
internal_value=0 31.7705 -13.9718 28.604 23.6091 24.6945 -2.42559 -27.1474 69.6191 -4.87295 -20.2231 33.6279 62.2758 68.9475 80.4986 -32.299 -26.3006 30.1407 32.2024 46.0077 -14.4249 -3.6385 -35.8954 19.4666 21.9023 38.6343 10.779 13.1916 24.9362 -14.9284
internal_weight=0 1161 2640 1133 1010 986 1407 1233 123 1187 526 364 102 79 47 707 265 284 263 80 113 1098 442 622 462 60 220 187 324 291
internal_count=3801 1161 2640 1133 1010 986 1407 1233 123 1187 526 364 102 79 47 707 265 284 263 80 113 1098 442 622 462 60 220 187 324 291
is_linear=0
shrinkage=0.1


Tree=14
num_leaves=31
num_cat=0
split_feature=42 9 34 50 151 29 122 49 49 1 105 33 50 74 144 54 56 18 2 62 33 66 5 144 21 10 36 143 104 22
split_gain=1.3721e+08 5.04306e+07 2.69373e+07 1.57605e+07 1.27641e+07 6.78316e+06 6.2734e+06 4.67696e+06 4.18396e+06 2.82512e+06 2.73469e+06 2.54583e+06 2.51896e+06 1.61531e+06 1.56669e+06 1.39244e+06 1.24097e+06 2.29853e+06 1.1678e+06 1.08831e+06 1.07357e+06 1.02619e+06 1.01388e+06 950289 723616 692053 677841 643083 632837 563165
threshold=3.333427298431305e-13 1.2819876873269997e-06 3.7795609538361974e-20 2.9355207005157537e-11 259.50000000000006 5.8113751207099723e-20 0.64672276221144298 5.6950094470687331e-11 1.6353758467675669e-10 25989862539.360645 0.64250000000000018 7.056761316221443e-14 1.75505866803225e-11 0.93813862179008056 0.15066973777292428 1.3027911623836877e-11 0.82914799723911925 33.159006302766478 7.5368268248759224e-07 0.71989791314082519 2.3865653843665112e-13 0.90069773210077042 3.7902739005887253e-13 0.074704333043819432 1.6407061425220555e-09 6.0009322472236356e-11 2.0606038499428408e-15 1.0620039052066939 0.4307917548813015 7.1256484798631066
decision_type=2 2 2 2 2 2 2 2 2 2 2 2 2 2 2 2 2 2 2 2 2 2 2 2 2 2 2 2 2 2
left_child=2 3 9 5 -3 -2 7 11 13 22 14 18 20 24 -10 23 -11 -18 -4 26 -7 28 -1 -14 -5 29 -20 -24 -19 -13
right_child=1 4 6 8 -6 12 -8 -9 10 16 -12 25 15 -15 -16 -17 17 21 19 -21 -22 -23 27 -25 -26 -27 -28 -29 -30 -31
leaf_value=-23.897274495987666 -34.252621499697369 190.17927230834962 -16.839862448807008 54.935244504867057 82.998470031738293 10.319924855743137 46.466104304790498 -53.110147342681891 94.336333465576175 -32.414278104242975 38.248824343474013 10.28750686084523 39.052464467828926 11.896947243100122 61.387247890896269 29.354239804656419 -31.616314044751618 -25.034976085027061 -14.482670639960233 9.413646982845508 19.608055460453034 7.8510944747924816 -12.278614628256822 17.348639099882465 34.580187215805054 5.1395584012754263 -5.3095552284811545 -27.320014051957568 -8.2267469049919217 -2.9462970590071276
leaf_weight=210 24 20 158 31 25 280 24 20 31 421 23 34 22 21 27 270 152 48 121 38 224 20 205 243 40 160 241 33 42 593
leaf_count=210 24 20 158 31 25 280 24 20 31 421 23 34 22 21 27 270 152 48 121 38 224 20 205 243 40 160 241 33 42 593
internal_value=0 26.6483 -13.5462 22.8624 130.634 18.3069 -4.21674 -5.10787 50.8534 -25.0039 67.4272 -4.39408 19.521 36.2613 78.998 24.3 -29.0516 -23.6483 -9.56091 -6.68572 14.448 -12.638 -18.8328 19.1505 43.4676 -0.730686 -8.37571 -14.3642 -17.1911 -2.22867
internal_weight=0 1281 2520 1236 45 1063 1389 1365 173 1131 81 1345 1039 92 58 535 683 262 558 400 504 110 448 265 71 787 362 238 90 627
internal_count=3801 1281 2520 1236 45 1063 1389 1365 173 1131 81 1345 1039 92 58 535 683 262 558 400 504 110 448 265 71 787 362 238 90 627
is_linear=0
shrinkage=0.1


Tree=15
num_leaves=31
num_cat=0
split_feature=10 4 63 55 45 29 51 75 53 50 3 52 30 118 144 81 5 61 19 33 50 99 20 75 21 41 18 127 130 22
split_gain=1.11431e+08 3.08111e+07 2.16753e+07 2.03255e+07 1.599e+07 7.77147e+06 3.54943e+06 2.64776e+06 2.39944e+06 2.32703e+06 2.19339e+06 1.90513e+06 1.42069e+06 1.39641e+06 1.32431e+06 1.15568e+06 1.0792e+06 1.07812e+06 1.76825e+06 1.05434e+06 999304 987632 882945 726369 653826 647000 604314 599135 592110 590782
threshold=1.0068947849337791e-10 2.4641258251979437e-12 0.92420001604337221 5.8699566917976147e-12 1.0995337378991694e-11 5.5600664452714332e-20 1.0631814251182923e-14 1.7802813579955978 3.696589649511199e-13 1.7708787890459723e-11 0.9071104809988545 1.2195196928161703e-12 8.1830235238237987e-19 0.43220304175815927 0.128208907895277 0.61707236993511516 3.7902739005887253e-13 0.82262565467946713 37.204592689885025 2.357605662288814e-13 4.0518058600333699e-11 0.037500000000000006 7.9580226110399453e-11 1.7702338941526774 1.6350085236233089e-09 2.3047038315335142e-16 41.987310125406985 281.50000000000006 0.35114317510062526 7.1069904878740218
decision_type=2 2 2 2 2 2 2 2 2 2 2 2 2 2 2 2 2 2 2 2 2 2 2 2 2 2 2 2 2 2
left_child=3 4 -3 8 5 -2 15 12 17 10 13 25 -8 19 22 20 -10 26 -19 -7 24 -20 -11 -16 -6 -5 -1 -25 29 -13
right_child=1 2 -4 11 6 9 7 -9 16 14 -12 28 -14 -15 23 -17 -18 18 21 -21 -22 -23 -24 27 -26 -27 -28 -29 -30 -31
leaf_value=-30.858665086958144 -33.219933272898196 44.69805435180664 177.16183933076405 -19.406085713704428 45.564415623591501 8.5876392341356507 62.555064392089847 37.551636941092362 -21.85969167601333 39.702277176468463 -19.296583525907426 13.53233380998884 100.24714544296265 38.922436516625538 14.198978563108595 17.849192810058593 -12.432200134422885 -28.496161505086533 5.5067010841369637 17.551251738640058 57.98416728973389 -16.907675593054815 23.941346114644638 8.9165789683659877 27.781149157610805 -7.5618442479260182 -18.183068390119644 26.123680883969445 3.0342139484017507 -3.6033876268076712
leaf_weight=360 32 30 21 51 39 291 20 21 237 54 21 21 20 21 193 25 249 151 25 239 28 92 104 24 44 482 42 129 255 480
leaf_count=360 32 30 21 51 39 291 20 21 237 54 21 21 20 21 193 25 249 151 25 239 28 92 104 24 44 482 42 129 255 480
internal_value=0 22.9913 99.242 -12.751 20.0114 15.3439 46.2629 66.3054 -22.3788 16.7882 12.4229 -4.11656 81.4011 13.6318 21.7424 37.2733 -17.0296 -26.2591 -21.3461 12.6297 41.6481 -12.1183 29.328 18.2785 36.1371 -8.69516 -29.5343 23.4245 -0.888522 -2.88512
internal_weight=0 1356 51 2445 1305 1108 197 61 1156 1076 572 1289 40 551 504 136 486 670 268 530 111 117 158 346 83 533 402 153 756 501
internal_count=3801 1356 51 2445 1305 1108 197 61 1156 1076 572 1289 40 551 504 136 486 670 268 530 111 117 158 346 83 533 402 153 756 501
is_linear=0
shrinkage=0.1


Tree=16
num_leaves=31
num_cat=0
split_feature=42 7 34 145 5 61 77 130 10 31 115 144 21 110 34 153 77 104 3 152 71 84 103 21 94 57 127 85 100 125
split_gain=9.0577e+07 3.58785e+07 1.756e+07 1.27258e+07 1.16813e+07 7.07542e+06 5.29329e+06 6.30585e+06 3.74924e+06 2.07196e+06 1.55032e+06 2.00019e+06 1.51023e+06 1.43417e+06 1.28395e+06 1.05101e+06 826100 824049 847900 806791 763450 953567 712446 655450 629307 622289 551193 499517 488308 458330
threshold=3.333427298431305e-13 1.2352610546584618e-07 4.7706893633544946e-20 0.034166666666666672 1.5071222001770173e-11 0.72943358229727173 1.7901212577841739 0.56181010448107449 3.8699211009369637e-10 2.1403207921282283e-20 291.50000000000006 0.14318300382322949 6.9449672670903344e-10 -0.19688789546286309 1.3134686113735732e-19 31.832580565062724 1.7668198595295415 0.45513101230384717 0.26577626613207156 0.39060311049946711 0.91122013543618363 1.3307543626908223 0.14583333333333334 1.5792576123702003e-09 -0.12310253507260349 1.1708757370864589e-20 260.50000000000006 3.1369185970737159 0.84040411653603919 0.32412489238868508
decision_type=2 2 2 2 2 2 2 2 2 2 2 2 2 2 2 2 2 2 2 2 2 2 2 2 2 2 2 2 2 2
left_child=2 4 9 -3 5 13 7 12 14 17 11 -6 28 -2 -7 26 -16 -1 -19 25 -11 -22 -10 -24 -25 -18 -14 -27 -4 -29
right_child=1 3 6 -5 10 8 -8 -9 22 20 -12 -13 15 -15 16 -17 19 18 -20 -21 21 -23 23 24 -26 27 -28 29 -30 -31
leaf_value=-25.257472657553759 -44.341734313964849 159.1046329577764 -11.503972820170382 52.510441303253174 65.365792425747586 5.50528006540641 47.757414422035225 -59.800996952056884 43.600325862339567 -18.906326285447225 78.210841924493977 27.894767706734793 0.42736630657423302 -6.4713288497924815 10.305720236392347 6.1860155517346413 15.368061056388479 -26.240526269983363 -2.5040763602537268 -0.79163062355735092 -7.9442677476713746 -22.932356293418191 40.479337138514367 27.711810159141368 8.4457253092811211 18.622433478418909 -4.6933465992191081 23.963356547679719 2.2496073295330183 40.172940426781068
leaf_weight=553 20 24 235 21 29 126 20 20 35 303 22 28 331 20 177 151 294 27 34 22 186 55 31 88 21 199 576 103 29 21
leaf_count=553 20 24 235 21 29 126 20 20 35 303 22 28 331 20 177 151 294 27 34 22 186 55 31 88 21 199 576 103 29 21
internal_value=0 21.6514 -11.0061 109.361 18.4581 15.9178 -3.30902 -4.07007 17.3976 -20.0592 55.662 46.959 -3.22694 -25.4065 14.9005 -1.53858 16.3513 -24.0407 -13.0104 18.0258 -15.5653 -11.3648 30.8393 27.649 24 18.6968 -2.8246 21.7267 -9.99316 26.7085
internal_weight=0 1281 2520 45 1236 1157 1362 1342 1117 1158 79 57 1322 40 942 1058 816 614 61 639 544 241 175 140 109 617 907 323 264 124
internal_count=3801 1281 2520 45 1236 1157 1362 1342 1117 1158 79 57 1322 40 942 1058 816 614 61 639 544 241 175 140 109 617 907 323 264 124
is_linear=0
shrinkage=0.1


Tree=17
num_leaves=31
num_cat=0
split_feature=10 93 44 29 152 56 77 57 4 10 101 10 21 55 80 21 117 50 143 99 36 9 112 115 114 105 57 106 84 146
split_gain=7.36892e+07 2.24295e+07 1.40662e+07 1.32497e+07 8.23248e+06 6.05314e+06 5.88113e+06 4.10996e+06 3.49485e+06 3.12955e+06 1.99495e+06 1.4503e+06 1.30072e+06 1.23215e+06 1.19057e+06 1.18633e+06 1.13572e+06 1.04613e+06 994533 812328 700323 672130 642315 890014 586492 568567 592559 503130 487950 485289
threshold=1.0068947849337791e-10 0.19083333333333338 5.3523640348896267e-12 4.177185517980762e-20 -0.038230974487560486 0.51843654025909924 1.7904858856348584 1.855766096280437e-19 1.5892706085424512e-12 3.1322916750732197e-10 -0.25033648489050903 7.7141158494721115e-10 5.3015656652857886e-10 5.8699566917976147e-12 0.037565075646970758 5.9143555328337464e-10 0.33571021117538419 7.8461897099285767e-13 1.0556981115038495 0.037500000000000006 1.4826764484066228e-14 3.253193896676669e-07 0.22838043073180972 291.50000000000006 -0.13426386635025114 0.59250000000000014 8.1622168614733445e-21 0.026040572395515608 1.1126635080224847 0.25021762483132898
decision_type=2 2 2 2 2 2 2 2 2 2 2 2 2 2 2 2 2 2 2 2 2 2 2 2 2 2 2 2 2 2
left_child=3 -2 5 10 -4 -3 8 11 9 13 -1 -6 -12 -7 -11 -5 17 -14 -13 -18 25 -17 23 -16 -19 -15 -27 -28 -29 -22
right_child=1 2 4 15 7 6 -8 -9 -10 14 12 18 16 20 22 21 19 24 -20 -21 29 -23 -24 -25 -26 26 27 28 -30 -31
leaf_value=-24.598720601621348 123.81239159584045 -37.041417246279508 107.48463935852051 -11.457274631631787 33.128764992791254 -12.95562308629354 67.204268582661953 1.1449942390124004 -23.955762443939847 15.694903596799548 -21.344527416155607 76.506377105712886 -20.551179019065756 2.5510038011995229 45.214541522876637 -4.9380430502125199 11.576073231904402 -27.738001823425293 47.309517673083718 -8.6528292272008702 18.499867277091507 0.19300869561491474 21.915512686704115 25.556255027896071 -9.9444075216409349 6.347442849892289 4.4941221298709992 29.068507743604258 14.415657707109844 11.175301136680552
leaf_weight=312 20 23 20 145 37 21 21 24 24 164 259 20 219 110 37 420 23 20 28 145 177 651 113 61 251 134 31 33 73 185
leaf_count=312 20 23 20 145 37 21 21 24 24 164 259 20 219 110 37 420 23 20 28 145 177 651 113 61 251 134 31 33 73 185
internal_value=0 18.6966 17.123 -10.3692 48.5095 13.7685 14.7555 37.6884 13.8085 14.6042 -17.6916 48.0066 -15.3415 10.9318 22.0861 -2.96845 -12.9786 -15.4113 59.4749 -5.8834 11.607 -1.81917 27.0537 32.9783 -11.2576 8.61441 11.0756 15.7002 18.9774 14.7566
internal_weight=0 1356 1336 2445 129 1207 1184 109 1163 1139 1229 85 917 764 375 1216 658 490 48 168 743 1071 211 98 271 381 271 137 106 362
internal_count=3801 1356 1336 2445 129 1207 1184 109 1163 1139 1229 85 917 764 375 1216 658 490 48 168 743 1071 211 98 271 381 271 137 106 362
is_linear=0
shrinkage=0.1


Tree=18
num_leaves=31
num_cat=0
split_feature=10 63 30 44 137 92 42 144 53 71 55 7 120 80 36 49 53 104 8 134 120 21 21 40 77 41 5 99 92 100
split_gain=5.98716e+07 2.55419e+07 1.60315e+07 6.89179e+06 2.71104e+06 4.26768e+06 2.20822e+06 2.05106e+06 2.04227e+06 1.98533e+06 1.36408e+06 2.05995e+06 1.22603e+06 1.16856e+06 1.02953e+06 911394 876872 841582 864303 792939 682630 622788 562017 434348 412501 462774 397778 389024 445854 373922
threshold=1.7880459445092898e-10 0.94587490424675502 5.6477970790634243e-20 5.3523640348896267e-12 30.171637967967804 4.5756282541299749 2.8747535556234624e-13 0.19538439187584197 5.106599203956807e-13 0.91850213402296965 1.1865150990728523e-11 7.2832619791134605e-08 0.042500000000000003 0.039058868419940461 1.0705970645878099e-15 3.3538625103102419e-12 1.142493236876741e-11 0.45513101230384717 0.34657236555196852 2.3257456106174899 0.039166666666666676 1.4384006052827198e-09 2.1978527092665717e-09 4.9230928129155082e-16 1.7893890433426949 4.5193837674861123e-15 9.4775128149511519e-12 0.31916666666666677 4.5427457690874498 -0.36904035044579087
decision_type=2 2 2 2 2 2 2 2 2 2 2 2 2 2 2 2 2 2 2 2 2 2 2 2 2 2 2 2 2 2
left_child=2 3 8 7 -5 -6 14 10 17 -9 16 19 13 -7 -4 -10 20 29 -19 -12 -2 27 23 -17 25 -8 -11 28 -16 -1
right_child=1 -3 6 4 5 12 24 9 15 26 11 -13 -14 -15 21 22 -18 18 -20 -21 -22 -23 -24 -25 -26 -27 -28 -29 -30 -31
leaf_value=-10.978251799558983 30.19939377524636 116.42857276068794 -13.022802912621271 6.3771013164520269 88.077435150146485 31.803371620178225 4.6894399429837321 -22.148680231571198 -16.765298132805164 8.3838628814182368 17.629196662350097 53.009967603683471 18.106432807922364 60.344925396259015 -3.8711670743127309 5.3178277055422463 -7.8951065199715762 -21.457187423706056 1.248521910215679 28.93447870121727 11.286669160425664 4.2504711743983083 -24.508525612240746 -8.5911454851599949 21.033728324799313 16.644094649114106 17.054060426656751 -13.186081212939639 0.7342522729166161 -21.08164328421724
leaf_weight=39 22 27 84 20 20 32 219 20 209 227 289 20 25 26 556 24 21 30 38 79 144 159 21 348 21 38 69 33 338 603
leaf_count=39 22 27 84 20 20 32 219 20 209 227 289 20 25 26 556 24 21 30 38 79 144 159 21 348 21 38 69 33 338 603
internal_value=0 20.4358 -7.70783 17.8797 40.0685 46.6105 -0.453212 14.8166 -15.7145 8.3446 18.3734 21.7548 36.6185 44.5979 -2.35677 -11.4298 11.3576 -19.3474 -8.7687 20.0561 13.7932 -1.53177 -8.59229 -7.69379 7.55817 6.45705 10.405 -2.52355 -2.12997 -20.4679
internal_weight=0 1041 2760 1014 123 103 1448 891 1312 316 575 388 83 58 1170 602 187 710 68 368 166 1086 393 372 278 257 296 927 894 642
internal_count=3801 1041 2760 1014 123 103 1448 891 1312 316 575 388 83 58 1170 602 187 710 68 368 166 1086 393 372 278 257 296 927 894 642
is_linear=0
shrinkage=0.1


Tree=19
num_leaves=31
num_cat=0
split_feature=10 63 30 44 144 4 46 153 31 122 53 151 115 55 49 65 9 104 63 71 120 135 21 45 114 153 128 101 88 47
split_gain=4.8496e+07 2.0689e+07 1.29855e+07 5.58235e+06 2.26183e+06 3.34566e+06 1.79548e+06 1.6993e+06 3.397e+06 2.59756e+06 1.65424e+06 1.00567e+06 884358 831409 758216 731679 689755 684075 790137 675919 574087 563747 470011 451909 435236 407658 402997 375249 422658 536211
threshold=1.7880459445092898e-10 0.94587490424675502 5.6477970790634243e-20 5.3523640348896267e-12 0.20172326136294752 1.5892706085424512e-12 3.4137241516242141e-12 31.638181610060215 5.3543426125683004e-18 0.2138636907679857 5.106599203956807e-13 278.50000000000006 294.50000000000006 1.2021801706869149e-11 4.6373440671794674e-12 0.80912769804436224 4.6034401153155944e-07 0.46016885268122876 0.26014560417502725 0.94288525993950378 0.04083333333333334 1.6900197779646435 2.1978527092665717e-09 4.7039719288107382e-13 0.053894759034180777 34.39820146383051 0.20743830449431352 -0.24778946688093409 124.92957912014593 2.1488723788747192e-13
decision_type=2 2 2 2 2 2 2 2 2 2 2 2 2 2 2 2 2 2 2 2 2 2 2 2 2 2 2 2 2 2
left_child=2 3 10 7 5 11 12 8 16 13 17 15 26 20 -12 -5 -2 27 -19 -15 -9 -22 -16 -14 -18 -8 -4 -1 -29 -30
right_child=1 -3 6 4 -6 -7 25 9 -10 -11 14 -13 23 19 22 -17 24 18 -20 -21 21 -23 -24 -25 -26 -27 -28 28 29 -31
leaf_value=-21.304955032116563 7.7408282660961154 104.78571582370336 -2.9769194323161865 17.333905029296876 60.475865467663475 -3.6899841547012331 4.0442991032443674 21.333856248855593 -30.970931071326845 51.419568161737359 -14.45500799902814 54.702621084672437 -15.433624748956589 15.963083804329955 -6.3603123830535138 43.429884610857286 5.2211882137116934 6.7758059819539387 -16.070201720260993 26.579331193996381 10.025073704398981 -6.77577439347903 -22.149278912544251 -4.5567616550596126 21.608863935336259 12.074870349371688 1.9764706374831602 -20.466110935086519 -16.789714490042794 -6.1534092419183075
leaf_weight=263 250 27 265 22 29 24 193 36 21 21 253 27 42 249 329 21 21 24 41 79 119 24 20 422 71 94 432 153 162 67
leaf_count=263 250 27 265 22 29 24 193 36 21 21 253 27 42 249 329 21 21 24 41 79 119 24 20 422 71 94 432 153 162 67
internal_value=0 18.3922 -6.93705 16.0918 36.0617 28.5296 -0.407891 13.335 8.06802 16.956 -14.143 39.5763 -2.15867 15.5285 -10.2868 30.0785 10.4652 -17.4127 -7.63475 18.52 10.0468 7.20535 -7.26512 -5.54131 17.8682 6.67452 0.0931875 -18.398 -16.3967 -13.6778
internal_weight=0 1041 2760 1014 123 94 1448 891 363 528 1312 70 1161 507 602 43 342 710 65 328 179 143 349 464 92 287 697 645 382 229
internal_count=3801 1041 2760 1014 123 94 1448 891 363 528 1312 70 1161 507 602 43 342 710 65 328 179 143 349 464 92 287 697 645 382 229
is_linear=0
shrinkage=0.1


Tree=20
num_leaves=31
num_cat=0
split_feature=42 7 145 29 5 60 122 98 10 64 115 144 101 113 107 80 21 117 20 77 110 81 89 34 49 78 115 91 10 145
split_gain=3.93206e+07 1.98146e+07 8.01967e+06 7.41173e+06 5.37398e+06 4.57336e+06 4.35836e+06 3.96733e+06 1.69558e+06 1.26711e+06 1.24985e+06 1.54339e+06 947416 823646 1.0227e+06 738162 618678 575788 1.22625e+06 684308 553948 533164 526851 523735 517236 483012 468645 527164 382169 376390
threshold=3.333427298431305e-13 1.2352610546584618e-07 0.034166666666666672 1.2986655182962103e-20 1.5071222001770173e-11 0.61601699219919415 0.64672276221144298 1.6386056227368253 3.1322916750732197e-10 0.70306045621912816 291.50000000000006 0.14318300382322949 -0.25033648489050903 0.070705402567003903 0.31950872301173355 0.040690503060557513 5.1888106233672447e-10 0.34029143006926948 3.6859468455862233e-11 1.7883555217265819 -0.18453223218545331 0.7212961657661251 26.634817590193929 1.2204653992391447e-19 5.5798024968087864e-12 0.075410242376293027 277.50000000000006 3.1238993861991897 2.0997613818822098e-11 0.025833333333333337
decision_type=2 2 2 2 2 2 2 2 2 2 2 2 2 2 2 2 2 2 2 2 2 2 2 2 2 2 2 2 2 2
left_child=3 4 -3 12 5 -2 7 9 23 28 11 -6 -1 14 -10 25 -11 20 -19 -20 -14 -18 -23 -7 -22 -16 -25 -28 -5 -29
right_child=1 2 -4 6 10 8 -8 -9 13 16 -12 -13 17 -15 15 -17 21 18 19 -21 24 22 -24 26 -26 -27 27 29 -30 -31
leaf_value=-18.757040240519071 -26.523080641211887 118.93553272883099 34.316254273482734 -12.316491130313704 45.48132608347926 2.0005117325349291 39.32850049932798 -44.8377328582432 11.311762035348615 -9.7853733198868262 57.372865919633341 12.566070815495083 -21.928736262851292 -3.3189857065677644 13.29444480399563 37.679289245605467 -1.0092380923923723 -12.954589502079282 -5.9705222606658941 15.052051423390706 -13.917511427950586 21.599957149326801 2.8190568839089347 -3.6435997155996471 -4.0034719897854716 23.531975204086308 5.8108668980371094 25.206889527184625 -5.6555537172360975 11.446384878761025
leaf_weight=301 33 24 21 112 29 110 24 23 157 74 22 28 72 20 73 26 863 127 32 30 348 20 59 26 62 125 194 21 373 372
leaf_count=301 33 24 21 112 29 110 24 23 157 74 22 28 72 20 73 26 863 127 32 30 348 20 59 26 62 125 194 21 373 372
internal_value=0 14.2655 79.4465 -7.25162 11.8924 10.1694 -2.95421 -3.62008 11.2467 -2.9885 37.1267 29.3124 -14.0957 16.4619 17.5003 21.8377 -0.981069 -12.0046 -7.3266 4.20169 -13.839 -0.289436 7.57372 8.35412 -12.4183 19.7575 9.49425 10.0762 -7.19375 12.1817
internal_weight=0 1281 45 2520 1236 1157 1548 1524 1124 1501 79 57 972 401 381 224 1016 671 189 62 482 942 79 723 410 198 613 587 485 393
internal_count=3801 1281 45 2520 1236 1157 1548 1524 1124 1501 79 57 972 401 381 224 1016 671 189 62 482 942 79 723 410 198 613 587 485 393
is_linear=0
shrinkage=0.1


Tree=21
num_leaves=31
num_cat=0
split_feature=10 152 6 30 137 49 132 13 63 116 50 32 53 144 10 21 21 104 3 49 22 85 77 3 118 40 34 7 10 57
split_gain=3.20536e+07 1.73705e+07 1.12965e+07 8.51604e+06 6.64314e+06 3.26694e+06 2.14824e+06 1.38239e+06 1.30966e+06 1.29036e+06 1.22898e+06 1.17251e+06 1.09445e+06 669015 677862 618474 600469 511834 603828 501303 440770 437070 423874 409771 594963 402296 377387 352160 323823 309003
threshold=1.7880459445092898e-10 0.49926507899499645 3.4091898022688023e-07 5.6477970790634243e-20 27.523020053984528 1.6353758467675669e-10 0.64416666666666678 52.336618303874651 0.69425684081210826 0.032976944581957393 6.0452386236065042e-12 2.1226179172466542e-19 5.106599203956807e-13 0.077562731615857264 3.0989150724766995e-10 5.2631528839794162e-10 1.8631406848648729e-09 0.45513101230384717 0.62925826438794696 3.3538625103102419e-12 7.1024875340564568 3.1478526458330887 1.7765991154069891 0.90434339104810213 0.43220304175815927 4.9230928129155082e-16 1.12898645111703e-19 6.4671853829072667e-08 4.7429673342283592e-11 6.4748522479748643e-23
decision_type=2 2 2 2 2 2 2 2 2 2 2 2 2 2 2 2 2 2 2 2 2 2 2 2 2 2 2 2 2 2
left_child=3 2 4 12 -2 7 8 11 9 -7 15 13 17 14 -6 -5 22 -1 -19 -14 -17 26 -13 24 -12 -21 -15 -24 -22 -27
right_child=1 -3 -4 10 5 6 -8 -9 -10 -11 23 16 19 21 -16 20 -18 18 -20 25 28 -23 27 -25 -26 29 -28 -29 -30 -31
leaf_value=-15.008621239996401 -43.993120711190357 107.24774603867905 87.559948806762691 -9.4195315948640452 12.161849721074105 14.046474473372749 5.2251059532165529 -11.277878750695123 61.525146195888524 47.19273360570272 4.8599055253951127 12.534859038334268 -12.295760975271891 -6.2482292788369316 29.198103082591093 11.969398101806641 4.7898380674164871 -11.967610875765484 8.7135747909545902 6.3111123094956083 -3.2215561416561083 16.524378259365374 20.896462077175809 -7.2946867068608601 20.731024489035974 1.0242870853060768 7.4822278877285049 34.513417020051378 0.349703537328655 -8.0873351852554798
leaf_weight=642 21 20 20 99 120 23 24 27 20 24 258 51 209 21 29 25 29 48 20 24 518 52 109 24 26 42 428 23 498 327
leaf_count=642 21 20 20 99 120 23 24 27 20 24 258 51 209 21 29 25 29 48 20 24 518 52 109 24 26 42 428 23 498 327
internal_value=0 14.9527 13.1447 -5.63975 11.6579 12.8504 30.8967 11.0032 40.0925 30.9722 -0.352295 11.7011 -11.4753 9.59479 15.4776 -1.86659 18.159 -14.1348 -5.88491 -8.33868 -1.1483 7.84521 20.2776 5.25256 6.3129 -6.23428 6.84005 23.2691 -1.47108 -7.05024
internal_weight=0 1041 1021 2760 1001 980 91 889 67 47 1448 862 1312 650 149 1140 212 710 68 602 1041 501 183 308 284 393 449 132 1016 369
internal_count=3801 1041 1021 2760 1001 980 91 889 67 47 1448 862 1312 650 149 1140 212 710 68 602 1041 501 183 308 284 393 449 132 1016 369
is_linear=0
shrinkage=0.1


Tree=22
num_leaves=31
num_cat=0
split_feature=10 4 10 30 139 9 46 91 145 42 101 21 53 148 127 117 86 50 116 146 125 139 155 49 128 18 24 20 89 154
split_gain=2.59634e+07 1.43921e+07 1.79118e+07 6.89799e+06 4.19088e+06 3.85862e+06 1.76421e+06 1.10496e+06 1.04563e+06 1.02437e+06 957103 755549 655177 542727 538119 475294 695920 471157 461542 446205 367021 360718 357598 341246 336870 439078 314232 312981 364597 301751
threshold=1.7880459445092898e-10 2.4641258251979437e-12 1.1754206446246041e-09 5.6477970790634243e-20 1.3152520807474362 7.8049919590158931e-07 1.6737813698366415e-11 3.12040753628759 0.060833333333333343 2.8747535556234624e-13 -0.25033648489050903 5.1888106233672447e-10 7.5820576223405295e-12 -0.09258837204862648 295.50000000000006 0.34029143006926948 206.50000000000003 7.8461897099285767e-13 0.018678774434279843 0.26175142931814438 0.31759146575120573 1.4155587325423031 0.079401568228886041 7.4814491019887205e-11 0.18873517381652424 46.107173204324688 7.075806512377441 8.1086918264478082e-11 25.067300926384871 0.88751019378879692
decision_type=2 2 2 2 2 2 2 2 2 2 2 2 2 2 2 2 2 2 2 2 2 2 2 2 2 2 2 2 2 2
left_child=3 4 -3 10 -2 6 12 -8 19 14 -1 -12 18 -14 20 17 -17 -13 29 -9 26 -19 23 -15 -24 -26 -5 28 -11 -6
right_child=1 2 -4 9 5 -7 7 8 -10 27 11 15 13 22 -16 16 -18 21 -20 -21 -22 -23 24 -25 25 -27 -28 -29 -30 -31
leaf_value=-15.153056836585268 -27.873285307707608 130.39393847921619 2.6551407734553023 8.7578097416804379 -1.3933136885506767 55.537685585021975 3.8396870493888855 28.553092624295143 43.217837753295896 19.108634587526321 -13.488815907559971 -12.224756408058475 3.4204344657399965 12.971940516574836 -4.4582417334166342 12.682683614015581 -5.2355312838556216 -5.4409660657310797 -11.773950834274293 11.137703844479153 2.5906657022412256 -19.29584894180298 7.8908605327822947 23.302239463442849 22.806717579181381 10.973435476757587 -2.5839882897183135 -6.0328792323236886 5.0440234845052379 11.396789611914221
leaf_weight=313 27 23 21 26 35 20 24 31 30 20 257 223 93 134 424 25 163 311 20 28 316 20 275 42 39 160 404 23 235 39
leaf_count=313 27 23 21 26 35 20 24 31 30 20 257 223 93 134 424 25 163 311 20 28 316 20 275 42 39 160 404 23 235 39
internal_value=0 13.4574 69.4277 -5.07578 10.9873 12.069 11.1538 22.8822 28.0173 -0.317065 -10.3278 -8.81594 9.57045 10.5656 -1.61357 -7.19744 -2.85279 -8.6718 1.70457 20.2882 0.00324684 -6.27812 11.5879 15.4371 10.1586 13.2925 -1.89821 5.13943 6.14713 5.34742
internal_weight=0 1041 44 2760 997 970 950 113 89 1448 1312 999 837 743 1170 742 188 554 94 59 746 331 650 176 474 199 430 278 255 74
internal_count=3801 1041 44 2760 997 970 950 113 89 1448 1312 999 837 743 1170 742 188 554 94 59 746 331 650 176 474 199 430 278 255 74
is_linear=0
shrinkage=0.1


Tree=23
num_leaves=31
num_cat=0
split_feature=10 152 66 135 30 8 142 118 113 135 42 101 21 107 94 91 41 75 151 40 40 46 53 21 105 6 17 94 39 77
split_gain=2.10303e+07 1.4036e+07 8.06066e+06 7.17345e+06 5.58737e+06 2.15291e+06 1.6832e+06 1.08816e+06 1.02153e+06 864495 829737 775254 611994 590788 499812 474991 462114 400165 388106 383724 359301 597534 522041 351095 313007 460352 301960 301242 280982 280412
threshold=1.7880459445092898e-10 0.49926507899499645 0.82389880723368736 1.620882013056441 5.6477970790634243e-20 0.90642284622265368 0.17123532113827852 0.4074136411795003 0.082874112456514451 1.703220666843227 2.8747535556234624e-13 -0.25033648489050903 5.1888106233672447e-10 0.33132587060996227 -0.16660843091582583 3.1238993861991897 5.6191418147946843e-16 1.7555105322641444 271.50000000000006 1.1175224627249415e-15 4.9230928129155082e-16 1.7172981418034901e-13 1.203141490991049e-12 1.3064265770404835e-09 0.61083333333333345 1.0854850757661486e-07 52.304591149093909 -0.14046037778447723 4.3816679367692457e-16 1.7893890433426949
decision_type=2 2 2 2 2 2 2 2 2 2 2 2 2 2 2 2 2 2 2 2 2 2 2 2 2 2 2 2 2 2
left_child=4 2 -2 -4 11 8 7 13 9 15 16 -1 -13 -7 -15 17 -6 -5 20 -18 21 -14 -23 26 -19 -26 -21 -16 -22 -12
right_child=1 -3 3 5 10 6 -8 -9 -10 -11 29 12 18 14 27 -17 19 24 -20 23 28 22 -24 -25 25 -27 -28 -29 -30 -31
leaf_value=-13.637750936087711 70.361255463686859 95.076461963653571 -47.301988106424162 -0.43548068350011654 -6.3919297812723679 11.727344639734788 47.327776895250594 -2.415349578857422 -13.437537590662638 29.434739627838134 3.71762818942564 -12.139934321971255 -8.7839553409152558 16.041886727563266 42.031833763122563 10.316580469368148 9.3422925871771749 4.873447296393179 -9.1040605191141371 -5.8194203260574451 -11.949938057363035 20.659493350982668 0.18475737788460472 1.8651309291998002 3.6310517985245276 20.267782759055113 -1.0232536078481005 25.707526544424208 -4.5777748715700275 15.735968830471947
leaf_weight=313 22 20 22 88 163 44 21 24 21 20 257 257 36 29 20 479 37 137 320 178 64 20 33 292 29 39 500 26 269 21
leaf_count=313 22 20 22 88 163 44 21 24 21 20 257 257 36 29 20 479 37 137 320 178 64 20 33 292 29 39 500 26 269 21
internal_value=0 12.1117 10.4865 9.16792 -4.5682 10.4395 20.8913 17.009 8.33116 8.90836 -0.285359 -9.29499 -7.93435 20.9265 26.3233 8.37659 -1.45221 5.20506 -6.4777 -0.652632 -4.48614 1.15803 7.91107 -1.03388 7.62637 13.1727 -2.28242 32.8051 -5.99465 4.62549
internal_weight=0 1041 1021 999 2760 977 164 143 813 792 1448 1312 999 119 75 772 1170 293 742 1007 422 89 53 970 205 68 678 46 333 278
internal_count=3801 1041 1021 999 2760 977 164 143 813 792 1448 1312 999 119 75 772 1170 293 742 1007 422 89 53 970 205 68 678 46 333 278
is_linear=0
shrinkage=0.1


Tree=24
num_leaves=31
num_cat=0
split_feature=10 63 30 73 58 5 13 146 93 153 113 120 53 95 18 21 32 104 150 119 72 49 57 101 63 65 48 15 106 61
split_gain=1.70565e+07 1.25276e+07 4.64996e+06 2.76106e+06 3.81262e+06 1.79198e+06 1.39035e+06 860608 917730 793595 667002 887358 651672 498294 478202 472057 363082 362823 531888 356752 337515 334484 337876 301145 354221 380651 288405 286548 283195 265741
threshold=1.8999502954422144e-10 0.94587490424675502 5.6477970790634243e-20 116.50000000000001 2.0777845696922103e-18 1.413606693699479e-11 52.336618303874651 0.26325725653256887 0.22750000000000001 34.270661813067029 0.076397171886882762 0.047500000000000007 5.106599203956807e-13 -0.15150652838733122 45.313970419813636 5.2631528839794162e-10 2.1226179172466542e-19 0.45513101230384717 0.60250000000000015 21374.000000000004 0.95733353340162097 4.6373440671794674e-12 5.4706454356340528e-23 -0.15486429367219143 0.27922083762973854 0.79354960387768558 9.2321159708503185e-13 49.613680011849929 0.073217582146425889 0.88395248224978029
decision_type=2 2 2 2 2 2 2 2 2 2 2 2 2 2 2 2 2 2 2 2 2 2 2 2 2 2 2 2 2 2
left_child=2 3 12 4 5 6 10 8 13 15 11 14 17 -7 -2 -4 28 -1 -19 23 26 -14 -23 -16 27 -26 -17 -25 -13 -18
right_child=1 -3 9 -5 -6 7 -8 -9 -10 -11 -12 16 21 -15 19 20 29 18 -20 -21 -22 22 -24 24 25 -27 -28 -29 -30 -31
leaf_value=-11.153387593571678 24.59849902232488 78.3287983081959 -7.5146552441166889 -21.667925790378028 53.392924215793613 31.843641666173937 -16.952788959849965 7.5792014305408193 46.254115150088353 6.5837329711452615 -9.0749436878022696 2.8745400262422889 -8.7136252078143031 9.7884901864188052 1.1716467438322125 -2.9001804451994815 3.1740591707683747 8.50329355398814 -10.003563759543681 19.552693259716037 12.134857177734375 7.0286186016522922 -4.8209678239866678 7.4999660491212019 29.255587164560957 9.9789607763290409 0.41640659835359123 15.268364057967913 9.2947355211422007 16.704919877965402
leaf_weight=642 30 27 102 28 20 20 22 26 21 155 21 263 253 21 33 387 21 24 44 47 21 26 323 163 21 20 813 67 93 47
leaf_count=642 30 27 102 28 20 20 22 26 21 155 21 263 253 21 33 387 21 24 44 47 21 26 323 163 21 20 813 67 93 47
internal_value=0 11.1281 -4.03245 9.28421 10.1908 9.26764 7.85812 22.8503 29.2543 -0.186073 8.51894 8.97791 -8.36549 20.5471 12.4804 -0.979209 5.83066 -10.4177 -3.47173 11.4446 -0.433251 -5.94514 -3.93819 10.1911 11.2894 19.8524 -0.653193 9.76293 4.55173 12.5263
internal_weight=0 1011 2790 984 956 936 848 88 62 1478 826 805 1312 41 381 1323 424 710 68 351 1221 602 349 304 271 41 1200 230 356 68
internal_count=3801 1011 2790 984 956 936 848 88 62 1478 826 805 1312 41 381 1323 424 710 68 351 1221 602 349 304 271 41 1200 230 356 68
is_linear=0
shrinkage=0.1


Tree=25
num_leaves=31
num_cat=0
split_feature=10 152 66 62 30 142 139 153 101 144 1 125 18 20 41 98 73 86 26 38 105 3 104 107 89 24 22 18 144 2
split_gain=1.38158e+07 1.09401e+07 5.93433e+06 6.89833e+06 3.76647e+06 2.03843e+06 866787 651004 577138 534048 514707 587119 533989 466636 408208 386762 386350 329699 322598 310499 446629 308664 578991 299417 277272 298963 268465 336394 264101 256305
threshold=1.8999502954422144e-10 0.49926507899499645 0.82389880723368736 0.89826095753696766 5.6477970790634243e-20 0.18045503133615698 1.3720219341017137 34.499647850838279 -0.25033648489050903 0.14698883557988265 1313941380.7458236 0.34944658428902059 45.313970419813636 2.5182688384260622e-11 5.6191418147946843e-16 1.1268479535144749 120.50000000000001 178.50000000000003 7.18681220705251 3.4640209025118113e-15 0.62250000000000016 0.62317898513283332 0.41772723067822803 0.32903925138628298 25.684768500503477 6.6012163357502924 7.1024875340564568 45.92409776078312 0.20172326136294752 5.2666677403547399e-07
decision_type=2 2 2 2 2 2 2 2 2 2 2 2 2 2 2 2 2 2 2 2 2 2 2 2 2 2 2 2 2 2
left_child=4 2 -2 5 8 6 10 14 -1 -8 11 12 -4 -10 -6 19 26 -15 -9 23 -21 24 -23 -14 28 -26 -16 -28 -19 -30
right_child=1 -3 3 -5 7 -7 9 18 13 -11 -12 -13 15 17 16 -17 -18 21 -20 20 -22 22 -24 -25 25 -27 27 -29 29 -31
leaf_value=-11.275942574598538 59.894499011473229 83.240023488998418 23.054366705020271 -39.832857907613118 -5.5822900567250926 34.526658703486127 30.414088920310689 4.520137149038769 -10.785866729480524 9.1513401054200667 4.494216723314354 -7.3486760377883913 7.8749300762933991 7.0650702260789418 9.8316652503013628 22.50871098609198 12.955587733875621 -9.718846903475681 18.377365667819976 8.4336950265444255 -9.3857809662818905 -9.880880072674854 7.8429248046875006 14.245032988932843 9.9421409416198738 -2.820612001923569 -2.794828882197316 0.71864931010886246 5.893027104934057 -5.3221109668634554
leaf_weight=313 22 20 30 30 158 30 27 105 192 21 371 20 254 21 25 21 22 129 20 39 22 235 20 104 20 223 445 703 24 135
leaf_count=313 22 20 30 30 158 30 27 105 192 21 371 20 254 21 25 21 22 129 20 39 22 235 20 104 20 223 445 703 24 135
internal_value=0 10.0153 8.53753 7.37153 -3.62921 8.87965 8.03322 -0.167465 -7.52894 21.1116 7.30411 9.4316 10.1457 -6.35496 -0.805377 9.26551 -0.173786 -5.30077 6.73729 8.60177 2.007 -5.63115 -8.49078 9.72546 -4.25789 -1.77018 -0.420031 -0.643283 -6.35689 -3.62926
internal_weight=0 1011 991 969 2790 939 909 1478 1312 48 861 490 470 999 1353 440 1195 807 125 419 61 786 255 358 531 243 1173 1148 288 159
internal_count=3801 1011 991 969 2790 939 909 1478 1312 48 861 490 470 999 1353 440 1195 807 125 419 61 786 255 358 531 243 1173 1148 288 159
is_linear=0
shrinkage=0.1


Tree=26
num_leaves=31
num_cat=0
split_feature=10 63 30 127 78 73 63 120 155 7 34 135 38 155 56 18 91 26 75 91 49 109 154 140 39 147 2 19 56 89
split_gain=1.12747e+07 1.02243e+07 3.45407e+06 2.63277e+06 2.25024e+06 1.58218e+06 2.10171e+06 859304 738458 605068 579401 490897 498348 451198 533307 401008 380759 372278 369958 400541 304388 301962 299477 480496 287053 280632 355384 259016 258175 252453
threshold=2.2701482418530698e-10 0.94587490424675502 5.6477970790634243e-20 272.50000000000006 0.19082496876309915 116.50000000000001 0.7267114488472044 0.047500000000000007 0.021330904033695839 6.1819027986181731e-08 3.9892529420387162e-19 1.7693530200113166 1.0906721888328904e-16 0.10105844823263034 0.95571329190805199 48.771848114396754 3.1238993861991897 7.1338965094715698 1.7891672526846398 3.1401496415408614 1.8882027737075622e-12 11652.500000000002 0.96075350790977454 -0.20329165963465765 1.5439016546635518e-15 0.17353247010890377 1.2183561504666519e-06 43.404394218396924 0.24117135233563738 25.684768500503477
decision_type=2 2 2 2 2 2 2 2 2 2 2 2 2 2 2 2 2 2 2 2 2 2 2 2 2 2 2 2 2 2
left_child=2 3 11 -2 5 6 7 9 -4 15 21 13 -13 -1 20 17 -9 22 19 24 -15 -11 -5 -24 27 -21 -27 -10 -14 -22
right_child=1 -3 8 4 -6 -7 -8 16 18 10 -12 12 28 14 -16 -17 -18 -19 -20 25 29 -23 23 -25 -26 26 -28 -29 -30 -31
leaf_value=-8.6654298606826696 -25.430817629461703 70.439740103262451 5.6690234621556908 6.7028397366564763 36.734754191126143 -17.952424472311268 39.129501900347805 1.0301551348481861 7.7211402728007386 18.715484619140625 7.4850878259410027 -4.5726944667798985 -9.9459415131632021 -8.9114183630004078 11.553017307463147 -4.3078935503959661 7.3059325288843233 17.280361127071696 -9.74335262450305 12.804282861755741 -5.7124334108307071 36.092542686462401 3.8890440008044247 24.339218217355235 1.2748408920003695 4.4453531665693635 -10.046001396775246 -2.4222261235878944 -16.761285853385925 -1.1665389594097599
leaf_weight=331 23 27 208 186 28 23 22 175 26 20 23 111 136 132 21 20 216 61 44 31 251 20 20 27 364 110 20 793 94 238
leaf_count=331 23 27 208 186 28 23 22 175 26 20 23 111 136 132 21 20 216 61 44 31 251 20 20 27 364 110 20 793 94 238
internal_value=0 9.84261 -3.01367 7.94895 8.86184 7.90188 8.6546 7.78163 0.112417 11.1881 20.132 -6.81064 -10.0756 -5.6664 -4.12017 9.39367 4.49708 10.3257 -0.720273 -0.424875 -4.65018 27.404 8.50501 15.637 -1.06174 4.25467 2.21591 -2.10021 -12.7313 -3.49991
internal_weight=0 891 2910 864 841 813 790 768 1596 377 63 1314 341 973 642 314 391 294 1388 1344 621 40 233 47 1183 161 130 819 230 489
internal_count=3801 891 2910 864 841 813 790 768 1596 377 63 1314 341 973 642 314 391 294 1388 1344 621 40 233 47 1183 161 130 819 230 489
is_linear=0
shrinkage=0.1


Tree=27
num_leaves=31
num_cat=0
split_feature=42 118 56 59 77 49 9 20 72 120 107 136 91 32 55 37 36 72 26 137 94 35 75 21 30 38 113 69 21 114
split_gain=9.1699e+06 7.87812e+06 4.14007e+06 3.69451e+06 3.52952e+06 4.38544e+06 1.68541e+06 1.18983e+06 1.09182e+06 1.03056e+06 825273 631459 537231 499317 437359 416588 315056 281518 323436 249152 255480 271131 233900 234753 321222 251207 381956 338121 225486 263043
threshold=3.333427298431305e-13 0.49067731590179359 -0.26472377184295853 1.4660006772344913e-18 1.7912689822415884 6.3353891308819361e-11 2.6340342098585684e-07 4.1298623930383875e-11 0.63970118994363279 0.042500000000000003 0.3601050694091194 2.4486452116803012 3.138703503128657 2.1226179172466542e-19 2.3464730142601931e-13 5.59979742890725e-16 1.5354201152841362e-14 0.94459399382683795 6.2263889003067696 32.894680671850388 -0.20647432345264147 5.2401229180018389e-15 1.7674800464671188 1.7658078152560097e-09 2.3696346592502707e-19 3.167886209672023e-15 -0.0011882990987163633 390.50000000000006 1.4495949590629621e-09 0.044015609459272097
decision_type=2 2 2 2 2 2 2 2 2 2 2 2 2 2 2 2 2 2 2 2 2 2 2 2 2 2 2 2 2 2
left_child=4 2 -2 7 5 6 14 -4 9 12 11 13 -9 22 17 -8 -15 -1 -19 20 -17 -22 -10 24 -24 26 -26 -28 -18 -30
right_child=1 -3 3 -5 -6 -7 15 8 10 -11 -12 -13 -14 16 -16 19 28 18 -20 -21 21 -23 23 -25 25 -27 27 -29 29 -31
leaf_value=-9.3856188437859398 50.939683532714845 63.643340826034546 -14.981872025242559 -37.555167167782784 33.885276046752935 -50.514973545074469 -9.4398068410045699 15.461421045180291 2.3942053766986904 1.2337119213172369 -11.249593054015062 20.150133706728621 34.570806409631459 22.059578733444216 -4.4255439456252645 9.5588492711385094 17.079104699028864 -8.0231615204560125 2.462056350708008 -7.1988128262407649 -0.80068103481052977 4.7738965089122454 2.3903590206813097 -0.015660854933723326 6.8622929386446421 -0.35325506444900268 22.706861758954599 9.7161357814774796 -2.9335740701718764 9.035654401819448
leaf_weight=421 20 24 27 20 25 20 53 31 340 28 29 30 28 20 746 27 27 76 48 51 957 96 133 62 214 31 33 51 22 111
leaf_count=421 20 24 27 20 25 20 53 31 340 28 29 30 28 20 746 27 27 76 48 51 957 96 133 62 214 31 33 51 22 111
internal_value=0 6.88905 5.80543 5.07569 -3.50193 -3.87655 -3.49968 5.77628 6.24727 17.0325 5.39657 5.84605 24.5303 5.43501 -5.99875 -0.774762 10.2264 -8.15216 -3.96437 -0.368708 -0.0461748 -0.292457 4.43681 5.76217 6.53755 8.21407 9.1053 14.8196 8.74722 7.05578
internal_weight=0 1281 1257 1237 2520 2495 2475 1217 1190 87 1103 1074 59 1044 1291 1184 180 545 124 1131 1080 1053 864 524 462 329 298 84 160 133
internal_count=3801 1281 1257 1237 2520 2495 2475 1217 1190 87 1103 1074 59 1044 1291 1184 180 545 124 1131 1080 1053 864 524 462 329 298 84 160 133
is_linear=0
shrinkage=0.1


Tree=28
num_leaves=31
num_cat=0
split_feature=10 152 81 56 2 57 154 140 127 139 155 139 84 38 89 133 30 130 20 39 153 89 14 152 122 118 98 147 25 56
split_gain=7.64397e+06 9.48175e+06 4.31485e+06 3.30311e+06 2.34985e+06 1.30894e+06 1.42535e+06 478962 631992 582542 461564 441899 444989 357048 310017 326651 301355 299732 303536 574193 273395 276175 289427 268922 273942 262304 308837 237972 236764 219300
threshold=2.2701482418530698e-10 0.42652719056577054 0.72603544525497854 0.10389466680364222 7.4572440795100606e-07 1.855766096280437e-19 0.98211877614262566 0.06568877851362355 276.50000000000006 1.3695126732108993 0.021330904033695839 1.4142745793750691 1.2494385548261071 1.0906721888328904e-16 25.826957647279627 0.36747717147770359 5.7209920540728634e-22 0.47615407325122655 3.8957286761586409e-11 6.7308428902158331e-16 33.218337487841261 26.917975760436367 1601597.8534434084 0.06018009479931985 0.13374031836207309 0.40538189132691377 1.1160069743514327 0.36035949737522527 7.2672639092971112 0.24117135233563738
decision_type=2 2 2 2 2 2 2 2 2 2 2 2 2 2 2 2 2 2 2 2 2 2 2 2 2 2 2 2 2 2
left_child=4 2 3 -2 11 6 7 8 -5 20 -6 12 14 -13 -1 16 -16 18 -12 -20 21 22 27 -9 -25 -18 -27 -10 -24 -15
right_child=1 -3 -4 5 10 -7 -8 23 9 -11 17 13 -14 29 15 -17 25 -19 19 -21 -22 -23 28 24 -26 26 -28 -29 -30 -31
leaf_value=-4.7758625896253024 47.66215999603272 67.605683297377368 -35.492862828572591 -7.273178239490675 4.692898738058509 -18.738298587799076 25.807960785352265 0.8666986696422101 8.8572419257391068 21.528231273199381 -3.4161522940770817 -3.6760082171843935 -7.3059163024395275 -8.0730523600578312 -9.4779848401139422 10.60893724958102 -1.8295754250248564 11.746455245018005 17.032313585281372 -0.09091607845527061 13.908672280226435 -2.7218308122069748 3.3830765569419192 4.4841727307960815 13.84190034238916 -0.71402492523193362 15.118829637224025 21.179939353942871 13.117427401989699 -14.118718165397645
leaf_weight=406 20 26 24 23 207 20 39 176 42 38 292 111 345 150 41 24 204 20 20 940 70 27 114 177 38 28 22 25 32 100
leaf_count=406 20 26 24 23 207 20 39 176 42 38 292 111 345 150 41 24 204 20 20 940 70 27 114 177 38 28 22 25 32 100
internal_value=0 8.10435 6.31587 7.50898 -2.48143 6.53083 7.16177 6.20744 8.78124 9.8423 0.313744 -5.37037 -4.34966 -8.39575 -2.94289 -0.610015 -1.52274 -0.398901 -0.592916 0.265818 8.40983 6.80601 8.01376 3.76529 6.1381 -0.238629 6.25243 13.4553 5.51663 -10.4913
internal_weight=0 891 865 841 2910 821 801 762 371 348 1479 1431 1070 361 725 319 295 1272 1252 960 310 240 213 391 215 254 50 67 146 250
internal_count=3801 891 865 841 2910 821 801 762 371 348 1479 1431 1070 361 725 319 295 1272 1252 960 310 240 213 391 215 254 50 67 146 250
is_linear=0
shrinkage=0.1


Tree=29
num_leaves=31
num_cat=0
split_feature=10 152 66 62 2 142 63 135 155 135 84 1 111 20 38 89 133 75 113 20 37 95 94 72 30 92 56 118 11 92
split_gain=6.19161e+06 7.79695e+06 4.81562e+06 6.46709e+06 1.90591e+06 1.12025e+06 637953 747540 389715 336863 347450 327760 369604 344157 312929 284403 269522 263074 361675 271858 435220 252728 332644 235242 234478 223206 211979 204689 195055 187394
threshold=2.2701482418530698e-10 0.49018147003995532 0.82389880723368736 0.90231573962543055 7.2506005860323633e-07 0.18045503133615698 0.65184361446630967 1.7041637686568272 0.021330904033695839 1.7693530200113166 1.2494385548261071 1151555664.4035814 2552.5000000000005 9.3840797708550619e-11 1.0906721888328904e-16 25.684768500503477 0.36747717147770359 1.7891672526846398 0.1281187195606279 3.9322117494578701e-11 2.2502118740852598e-15 -0.13518916047443061 -0.16660843091582583 0.84401387694282404 2.9958469238572093e-19 4.2227496124396851 0.60335068118494795 0.40503108730276899 137506.61965672587 4.5837012552628646
decision_type=2 2 2 2 2 2 2 2 2 2 2 2 2 2 2 2 2 2 2 2 2 2 2 2 2 2 2 2 2 2
left_child=4 2 -2 5 9 6 7 11 -6 10 15 13 29 27 -11 -1 23 18 19 -10 -21 22 -9 -17 -14 -22 -16 -4 -15 -13
right_child=1 -3 3 -5 8 -7 -8 21 17 14 -12 12 24 28 26 16 -18 -19 -20 20 25 -23 -24 -25 -26 -27 -28 -29 -30 -31
leaf_value=-4.6894321101267691 53.182453355335056 69.026954364776614 8.3786665230989463 -44.396915171696591 4.2076142588415406 25.226042512257894 -11.250833233920012 11.798574395179749 -3.0661790843149932 -3.3084072581282609 -6.619599202146448 -4.9607353663912015 3.2727394970709627 -7.3179214036464693 -8.6432190115499026 -0.23472140509649597 9.8329334673674218 -8.5387446366823649 12.813789621988931 14.98928747713566 -2.8040560583178511 8.2717229175567635 29.818672325497587 -8.067909145355225 10.220237108208668 0.89402107067706194 -17.927667181832451 18.945049018859862 4.8827954618554372 2.0002940376847982
leaf_weight=356 21 20 220 26 208 30 22 20 297 111 347 51 110 20 202 259 23 39 21 20 209 25 21 45 87 745 28 20 38 160
leaf_count=356 21 20 220 26 208 30 22 20 297 111 347 51 110 20 202 259 23 39 21 20 209 25 21 45 87 745 28 20 38 160
internal_value=0 7.29391 5.87639 4.70766 -2.23329 6.25707 5.54036 6.01886 0.18219 -4.94476 -4.04284 5.06743 3.22601 7.58858 -7.66903 -2.73372 -0.604561 -0.446877 -0.202618 -0.41768 0.389922 16.1963 21.0284 -1.39424 6.34092 0.0838553 -9.7735 9.2592 0.675652 0.31777
internal_weight=0 891 871 850 2910 824 794 772 1539 1371 1030 706 408 298 341 683 327 1331 1292 1271 974 66 41 304 197 954 230 240 58 211
internal_count=3801 891 871 850 2910 824 794 772 1539 1371 1030 706 408 298 341 683 327 1331 1292 1271 974 66 41 304 197 954 230 240 58 211
is_linear=0
shrinkage=0.1


Tree=30
num_leaves=31
num_cat=0
split_feature=4 95 46 152 73 9 55 53 136 6 66 113 91 120 54 127 155 116 51 141 62 40 104 66 150 5 41 54 2 108
split_gain=5.25403e+06 1.59631e+07 3.90522e+06 3.02864e+06 2.87746e+06 1.33907e+06 928359 744566 632362 696876 571632 524359 420894 442928 354585 311231 300052 263161 262147 260974 493293 256907 256025 250490 247281 246415 244383 244204 288689 221512
threshold=2.4641258251979437e-12 -0.11306594545942894 3.4137241516242141e-12 0.45337985051247237 86.500000000000014 9.0890383369539332e-07 2.5981388271567892e-12 7.5820576223405295e-12 2.4531903292243951 1.5002638334676815e-07 0.91359739857496813 0.047867206912648903 3.1242179665944207 0.039166666666666676 2.4305509316197315e-12 254.50000000000003 0.19635687089682882 -0.22722714065084651 8.543769319258589e-16 0.18399731634971275 0.35190422114920056 8.6825982003740874e-16 0.21641077599773512 0.90913359202031319 0.63916666666666677 5.0215756235614879e-13 2.0809548558094778e-16 1.3720211877308895e-11 1.2851560402634247e-06 0.15412754798138753
decision_type=2 2 2 2 2 2 2 2 2 2 2 2 2 2 2 2 2 2 2 2 2 2 2 2 2 2 2 2 2 2
left_child=2 -2 6 5 -3 7 14 11 9 10 16 -4 -10 -14 18 17 23 -8 19 26 -21 -20 -18 24 -9 -23 -1 -26 -29 -17
right_child=1 4 3 -5 -6 -7 15 8 12 -11 -12 -13 13 -15 -16 29 22 -19 21 20 -22 25 -24 -25 27 -27 -28 28 -30 -31
leaf_value=-4.8846390343298758 102.64874752044678 16.528234971364338 0.6580315779485455 -33.736383783249629 -32.439949665069584 29.594628043401812 -5.1737096703969518 4.5379650378827447 3.0581865501403809 -13.889785175323489 20.209119160970054 -13.872043335848842 30.475142877752134 9.9131672596931466 -16.528869584754663 -2.3261030660759245 4.2473685946051534 2.5497080196629689 6.8512539863586426 7.8153102071661698 -5.3124966874204835 -7.9019546444736308 -2.6799887980455939 -3.8899213773232924 6.1472615895593696 -0.095758174213708622 -8.9114197230637622 20.106035364757886 8.2341253907040315 5.758536379677909
leaf_weight=338 20 30 173 21 20 21 52 452 20 20 24 29 22 20 27 1069 127 291 30 38 116 67 92 27 159 102 272 33 54 35
leaf_count=338 20 30 173 21 20 21 52 452 20 20 24 29 22 20 27 1069 127 291 30 38 116 67 92 27 159 102 272 33 54 35
internal_value=0 27.1432 -0.509253 3.93062 -3.05904 4.55199 -2.86674 4.13195 5.20157 4.58681 4.96856 -1.42797 14.9981 20.6837 -5.22639 -1.25233 4.58109 1.37881 -4.90949 -5.75155 -2.07317 -1.67669 1.33725 5.56095 5.92653 -3.19052 -6.68019 8.47787 12.7373 -2.0698
internal_weight=0 70 3731 1294 50 1273 2437 1252 1050 988 968 202 62 42 990 1447 944 343 963 764 154 199 219 725 698 169 610 246 87 1104
internal_count=3801 70 3731 1294 50 1273 2437 1252 1050 988 968 202 62 42 990 1447 944 343 963 764 154 199 219 725 698 169 610 246 87 1104
is_linear=0
shrinkage=0.1


Tree=31
num_leaves=31
num_cat=0
split_feature=4 77 144 41 10 46 4 141 86 59 109 72 140 130 101 148 73 31 92 98 127 36 61 56 117 99 81 147 68 66
split_gain=4.25576e+06 1.37806e+07 5.27249e+06 3.19693e+06 1.18955e+06 1.00489e+06 1.90084e+06 1.44915e+06 647636 675397 395968 378205 373772 456832 295514 270787 267025 300698 251209 243147 238204 217207 207961 291558 567277 693772 227376 205236 210216 205896
threshold=2.4641258251979437e-12 1.7841931058531579 0.21392061182742841 1.3268729247034959e-15 1.5447353578415015e-10 7.8661123334970836e-12 1.5892706085424512e-12 0.17606865170913563 222.50000000000003 7.2640989126323255e-20 9176.0000000000018 0.95519332226023035 0.06568877851362355 0.36889106654117348 -0.16813233007531644 0.16570339602942105 110.50000000000001 3.9477753177059578e-18 4.1428315076743925 1.0725467046507322 293.50000000000006 3.2851467115193465e-14 0.95902509831284755 0.86675733908846142 0.34029143006926948 0.13916666666666669 0.67453483273711379 0.4108224958279631 305.50000000000006 0.90730244503720237
decision_type=2 2 2 2 2 2 2 2 2 2 2 2 2 2 2 2 2 2 2 2 2 2 2 2 2 2 2 2 2 2
left_child=3 2 -2 4 10 16 7 8 -7 12 11 20 13 14 -10 -11 17 18 -5 -18 -1 -21 23 -12 -25 -26 -27 28 -16 -30
right_child=1 -3 -4 5 -6 6 -8 -9 9 15 22 -13 -14 -15 27 -17 19 -19 -20 21 -22 -23 -24 24 25 26 -28 -29 29 -31
leaf_value=1.9106606097725347 -40.26738993904808 94.583186825513849 25.151413704667775 -4.3824825475613274 -28.164407424926761 -10.732563138008118 -23.65991726750913 30.806806698712439 19.334541084652855 24.066173537572226 -5.318976660648616 12.122197413444519 2.3634256436225911 -7.0291633410887293 15.800118746076311 9.7064193610487308 0.53209230249578299 12.594222824488369 0.95129996338304312 -13.954396266008125 -3.1657100464708066 -1.9405887939311839 -11.925449134141971 -5.1095770404500485 18.804636248835813 -9.1066450391496936 5.7917441368103031 14.910502379735313 6.3207703177664021 -3.4229929902280372
leaf_weight=123 22 20 28 96 20 26 23 22 21 24 788 20 382 22 21 29 55 21 1101 34 372 27 39 118 27 21 20 30 225 24
leaf_count=123 22 20 28 96 20 26 23 22 21 24 788 20 382 22 21 29 55 21 1101 34 372 27 39 118 27 21 20 30 225 24
internal_value=0 24.4289 -3.63286 -0.458328 -3.93445 2.00665 4.69606 5.48563 4.79276 5.3116 -3.61731 -1.35959 4.51497 6.91115 7.86656 16.2089 0.295023 0.731643 0.523528 -4.28949 -1.90431 -8.63681 -4.76511 -4.4784 -0.917256 6.35765 -1.83914 7.0638 6.19194 5.38161
internal_weight=0 70 50 3731 1548 2183 849 826 804 778 1528 515 725 343 321 53 1334 1218 1197 116 495 61 1013 974 186 68 41 300 270 249
internal_count=3801 70 50 3731 1548 2183 849 826 804 778 1528 515 725 343 321 53 1334 1218 1197 116 495 61 1013 974 186 68 41 300 270 249
is_linear=0
shrinkage=0.1


Tree=32
num_leaves=31
num_cat=0
split_feature=63 43 9 51 31 33 9 107 61 32 153 115 116 113 98 40 94 92 132 61 10 82 20 84 98 135 99 107 107 104
split_gain=3.59046e+06 3.96726e+06 5.80069e+06 3.02012e+06 4.16208e+06 817916 822811 747315 571897 511034 434106 343952 327614 539254 451669 279174 272546 322493 259713 223920 215529 333258 195147 216218 238774 302090 554420 181348 254400 175357
threshold=0.97542750338497342 7.5584622818791032e-12 1.8335700910234837e-06 3.9954378450603428e-15 1.245097632003933e-17 2.1073170959290439e-13 2.5537358659739124e-07 0.37187357606514421 0.95142667198514475 2.1226179172466542e-19 32.343990680926076 273.50000000000006 0.03094126337541107 0.014847384633196455 1.0850692227842818 8.0111953930863301e-16 -0.18158863094876551 4.6518135588968539 0.64416666666666678 0.95902509831284755 3.8114831128476296e-10 0.72498355045985807 2.4748632348740875e-11 1.2494385548261071 1.1160069743514327 1.7631644873320036 0.080833333333333354 0.33260436030832757 0.3452646781610002 0.1506165878182068
decision_type=2 2 2 2 2 2 2 2 2 2 2 2 2 2 2 2 2 2 2 2 2 2 2 2 2 2 2 2 2 2
left_child=1 2 3 5 7 6 19 9 15 11 -9 -5 13 27 18 -8 17 -17 -14 22 -13 -22 -1 24 -24 26 -26 -11 -29 -18
right_child=-2 -3 -4 4 -6 -7 8 10 -10 12 -12 20 14 -15 -16 16 29 -19 -20 -21 21 -23 23 -25 25 -27 -28 28 -30 -31
leaf_value=-6.1553195702689258 35.677154095683782 38.662774511484002 -52.944356282552093 -10.524730763435365 46.9882513479753 -19.512290411083789 -4.1321292031836769 -19.733249192010788 14.428117375648938 4.9614792668050338 -1.1119955001338837 2.2867871728922116 14.23890928396812 -5.810226519240274 23.365034347027542 17.142359035015108 1.3709821501645845 -0.81572447270154957 -0.18687732567389806 -11.437461315958124 15.528040466643871 0.97999238044984871 -3.0004637741145932 -5.5353677430724515 18.045587217807771 -4.9392612001170288 0.33238190508155685 16.895178552774283 3.8096738557020822 -1.2949180102686508
leaf_weight=244 28 26 21 20 22 27 186 21 26 93 31 773 26 36 27 20 406 20 24 38 32 31 550 244 24 46 67 39 24 629
leaf_count=244 28 26 21 20 22 27 186 21 26 93 31 773 26 36 27 20 406 20 24 38 32 31 550 244 24 46 67 39 24 629
internal_value=0 -0.264766 -0.534879 -0.239496 3.89368 -2.20058 -2.01362 3.08817 -0.252367 3.62991 -8.63212 2.43513 7.43188 5.22184 12.9426 -0.555058 0.0638586 8.16332 7.31453 -3.88232 2.74517 8.36948 -3.63798 -2.97822 -2.07001 1.66538 5.004 7.7677 11.9102 -0.249164
internal_weight=0 3773 3747 3726 1199 2527 2500 1177 1287 1125 52 856 269 192 77 1261 1075 40 50 1213 836 63 1175 931 687 137 91 156 63 1035
internal_count=3801 3773 3747 3726 1199 2527 2500 1177 1287 1125 52 856 269 192 77 1261 1075 40 50 1213 836 63 1175 931 687 137 91 156 63 1035
is_linear=0
shrinkage=0.1


Tree=33
num_leaves=31
num_cat=0
split_feature=102 6 41 10 22 31 46 130 140 91 134 109 139 58 51 152 103 51 13 98 144 145 20 65 52 37 141 123 136 68
split_gain=3.53613e+06 3.02988e+06 2.27101e+06 1.85545e+06 1.29414e+06 871597 719714 759023 456024 381512 356646 280532 307779 655704 260278 219386 206850 222705 247484 204135 204111 203810 177918 175316 273406 289641 275643 402661 222242 185320
threshold=0.96360172574030878 3.4091898022688023e-07 1.3662750131866771e-15 1.5447353578415015e-10 7.5698189000631499 1.245097632003933e-17 7.8661123334970836e-12 0.38835385829854779 0.06568877851362355 3.1075910162157556 2.3637535102911831 9176.0000000000018 1.2899468245686661 8.2329596031871803e-21 5.1291616825990486e-15 0.06018009479931985 0.17583333333333337 7.1024974551930992e-15 48.878820231806834 1.190979127943945 0.18893906647954389 0.060833333333333343 9.3840797708550619e-11 0.52369672648288512 5.461103736088677e-13 7.1575661307510202e-16 0.15284310948411012 -0.15740612803351942 2.5013572321952391 250.50000000000003
decision_type=2 2 2 2 2 2 2 2 2 2 2 2 2 2 2 2 2 2 2 2 2 2 2 2 2 2 2 2 2 2
left_child=1 2 3 11 5 6 19 8 9 20 14 12 -1 -14 -11 -10 17 -16 -19 -4 -8 -12 -18 -13 25 26 -25 -28 -26 -27
right_child=-2 -3 4 -5 -6 -7 7 -9 15 10 21 23 13 -15 16 -17 22 18 -20 -21 -22 -23 -24 24 28 29 27 -29 -30 -31
leaf_value=-2.2407326742217015 35.406235558646067 32.510260493414748 0.40574980360402135 -32.256340547041461 -22.021354998712955 22.098694973900209 4.9924125641584398 -15.278549599684775 -0.52182693073104103 14.667153333936419 8.2043553670247391 -5.4228515078775263 -0.49372792380196712 19.653530075436549 3.171832904304777 4.1980864940004219 4.2146717856480533 20.472966046333312 8.0513833911698551 -6.8484583142772326 -8.0495462084809954 20.3155817055341 -6.0189719034277873 -3.4006045127053599 10.641234008471173 -3.1209947292397664 12.810202266430034 -2.9275232830563107 -0.80072271731393097 -9.4139934576979467
leaf_weight=434 28 28 1284 22 23 21 24 20 181 35 24 460 70 21 70 216 65 20 81 40 24 33 23 215 24 82 29 37 58 109
leaf_count=434 28 28 1284 22 23 21 24 20 181 35 24 460 70 21 70 216 65 20 81 40 24 33 23 215 24 82 29 37 58 109
internal_value=0 -0.262755 -0.507787 -3.42058 1.57411 1.82524 1.6263 3.96229 4.44573 6.83325 7.97674 -3.00837 -1.13203 4.15564 6.57319 2.04619 5.47941 7.50672 10.5111 0.186589 -1.52857 15.2161 1.53997 -3.97985 -2.78168 -3.70763 -1.66531 3.98754 2.54814 -6.71229
internal_weight=0 3773 3745 1561 2184 2161 2140 816 796 399 351 1539 525 91 294 397 259 171 101 1324 48 57 88 1014 554 472 281 66 82 191
internal_count=3801 3773 3745 1561 2184 2161 2140 816 796 399 351 1539 525 91 294 397 259 171 101 1324 48 57 88 1014 554 472 281 66 82 191
is_linear=0
shrinkage=0.1


Tree=34
num_leaves=31
num_cat=0
split_feature=4 73 105 30 139 10 62 107 59 10 130 26 91 135 66 67 0 91 68 144 21 38 16 54 85 105 60 103 131 41
split_gain=3.02421e+06 1.23695e+07 4.06287e+06 1.76083e+06 920925 2.80999e+06 1.68506e+06 522597 382106 371072 263229 246364 243216 252864 236357 249389 252208 225379 217917 212245 267618 379402 198033 220596 205948 512632 200511 192845 210521 188244
threshold=2.4641258251979437e-12 110.50000000000001 0.62250000000000016 8.7411042787768638e-20 1.3152520807474362 2.0932265195497484e-10 0.72477229819176636 0.37308948196271058 6.87775683705801e-20 1.2704231522139697e-10 0.37047775220227591 6.6271719390324755 3.1075910162157556 1.7105401655476289 0.9085336009633489 0.91596850154434561 3.2584786868020805e-13 3.143054684277462 304.50000000000006 0.20172326136294752 5.5703504402571558e-10 1.6578325055818406e-16 55.851768311242644 3.3498931650705006e-11 3.1137581770584486 0.61583333333333345 0.94795407415956034 0.18250000000000002 0.03957202171692354 2.0163208477870746e-15
decision_type=2 2 2 2 2 2 2 2 2 2 2 2 2 2 2 2 2 2 2 2 2 2 2 2 2 2 2 2 2 2
left_child=3 2 -2 9 5 11 7 8 12 19 17 -5 18 14 15 16 -14 -10 -6 -1 -21 -22 23 24 29 26 -26 28 -17 -13
right_child=1 -3 -4 4 6 -7 -8 -9 10 -11 -12 22 13 -15 -16 27 -18 -19 -20 20 21 -23 -24 -25 25 -27 -28 -29 -30 -31
leaf_value=-3.4979000458853777 -30.839343636611417 84.804966717674631 27.747529926300047 8.3573243456728328 -9.0925723736102775 -36.169680751453747 32.143372025489803 -11.734301014741263 -1.7170629787445071 -16.055891822633289 19.24623086348824 -2.7280881731902351 3.1144782285370707 12.428512247006099 -4.9600064386640277 14.214840489261006 -5.1628093664462753 13.11577580088661 0.80513001074651624 -7.4951863449195333 11.443552844340985 -0.97159410066805885 9.2675992536757672 -7.3746258746253126 1.8706100778974546 15.675279819048368 -8.5338539918263745 0.94659629066785189 5.2395172813108992 0.89117411642918798
leaf_weight=1066 29 21 20 34 26 22 20 24 20 21 23 326 656 30 35 49 39 21 154 58 26 462 21 45 157 26 21 36 56 257
leaf_count=1066 29 21 20 34 26 22 20 24 20 21 23 326 656 30 35 49 39 21 154 58 26 462 21 45 157 26 21 36 56 257
internal_value=0 20.5931 -6.92633 -0.386361 1.53026 -0.865914 3.36215 2.86975 3.17586 -2.84874 10.6836 0.00971542 2.73136 3.4018 3.09089 3.42795 2.65 5.88024 -0.624538 -2.67669 -1.07338 -0.310131 -0.323015 -0.565085 -0.175722 2.55898 0.643117 7.26254 9.428 -1.13263
internal_weight=0 70 49 3731 2098 909 1189 1169 1145 1633 64 887 1081 901 871 836 695 41 180 1612 546 488 853 832 787 204 178 141 105 583
internal_count=3801 70 49 3731 2098 909 1189 1169 1145 1633 64 887 1081 901 871 836 695 41 180 1612 546 488 853 832 787 204 178 141 105 583
is_linear=0
shrinkage=0.1


Tree=35
num_leaves=31
num_cat=0
split_feature=63 9 9 51 58 49 4 49 53 34 118 152 147 49 5 136 59 85 54 143 46 145 94 124 127 73 133 62 36 67
split_gain=2.90624e+06 3.14251e+06 6.07245e+06 1.40034e+06 832558 554895 681585 561570 442342 316952 269482 251043 282569 265451 247269 242395 179369 166232 167943 307823 201944 270259 165849 162242 134471 194916 134163 132869 345210 352552
threshold=0.97542750338497342 1.8335700910234837e-06 1.2819876873269997e-06 3.8144607045416418e-15 2.3086520562959719e-19 2.9257958110135126e-10 1.485961822084324e-12 2.0084566682784704e-10 5.106599203956807e-13 1.2910754536465362e-19 0.51574747136444599 0.39060311049946711 0.19445076996388003 1.2095133394641474e-10 3.7902739005887253e-13 2.4462210497732833 6.3538981867426077e-23 2.7638564927124061 2.1874421128482259e-11 0.99168978320965573 3.4137241516242141e-12 0.037500000000000006 -0.1266389455839291 0.073614788526643396 258.50000000000006 33.500000000000007 0.12662211032593243 0.4077051411740677 1.1152319607831001e-15 0.91626681750980266
decision_type=2 2 2 2 2 2 2 2 2 2 2 2 2 2 2 2 2 2 2 2 2 2 2 2 2 2 2 2 2 2
left_child=1 2 3 4 8 6 7 9 27 23 14 12 13 22 -10 -14 -16 -18 20 -20 24 -22 -11 -5 25 -19 -24 28 29 -1
right_child=-2 -3 -4 5 -6 -7 -8 -9 10 11 -12 -13 15 -15 16 -17 17 18 19 -21 21 -23 26 -25 -26 -27 -28 -29 -30 -31
leaf_value=-1.7111968619640447 32.098242301600322 -35.574819610595704 48.15719090975248 0.55442422303286465 -22.020934047698976 18.1640231479298 -13.006996666974036 16.503869492667061 -3.7472523975085061 3.3612425168004694 10.307772311297331 -8.0119016556512754 4.1333599135704988 -9.5212759364734989 8.8329351351374665 14.417779922485352 -5.6300375940402354 -4.2427295530283891 0.88695033490657815 -12.271704275906087 14.382684092294603 1.6524011964415326 4.1804175210553547 -6.2231358962543943 -1.0135829034806341 2.2819245372499739 -2.2694670826889749 -4.702355809505673 -11.257547625373391 11.890135383605958
leaf_weight=206 28 25 26 88 20 22 29 28 249 255 22 21 508 22 21 24 60 54 40 32 21 81 43 59 887 301 129 445 34 21
leaf_count=206 28 25 26 88 20 22 29 28 249 255 22 21 508 22 21 24 60 54 40 32 21 81 43 59 887 301 129 445 34 21
internal_value=0 -0.238206 -0.00250275 -0.338922 -1.69999 2.42533 2.13822 2.51139 -1.53571 2.1704 -0.690745 2.80656 3.03814 1.19075 -0.829329 4.59732 -0.343983 -0.474549 -0.256096 -4.96134 -0.00402923 4.27334 1.74265 -2.16582 -0.355311 1.28944 -0.656996 -3.65173 -1.86042 -0.452924
internal_weight=0 3773 3748 3722 2494 1228 1206 1177 2474 1149 1768 1002 981 449 1746 532 1497 1476 1416 72 1344 102 427 147 1242 355 172 706 261 227
internal_count=3801 3773 3748 3722 2494 1228 1206 1177 2474 1149 1768 1002 981 449 1746 532 1497 1476 1416 72 1344 102 427 147 1242 355 172 706 261 227
is_linear=0
shrinkage=0.1


Tree=36
num_leaves=31
num_cat=0
split_feature=102 43 32 71 5 4 141 60 60 66 141 60 126 75 70 33 111 99 46 18 127 26 75 129 146 18 95 85 126 124
split_gain=2.8674e+06 2.0147e+06 1.4771e+06 2.80261e+06 1.18045e+06 582094 799257 424995 390479 542146 334759 241966 215119 263106 205047 170100 151574 172947 162103 330664 257685 199189 150172 178301 222633 220498 201014 353396 218430 239837
threshold=0.96360172574030878 7.5584622818791032e-12 1.4966054570011099e-18 0.8819469194114552 3.2291167013490568e-12 1.485961822084324e-12 0.20182031505905454 0.96314834340765099 0.72644213629709409 0.9146265058627967 0.18399731634971275 0.94311470291518018 0.24499713806046783 1.7490808225739702 267.50000000000006 7.056761316221443e-14 2621.5000000000005 0.12083333333333335 7.8661123334970836e-12 46.494435502852141 298.50000000000006 7.1338965094715698 1.7884326655004901 0.19765314034795164 0.24822704747536845 48.343769469641309 -0.14227498227391502 3.1455084245588325 0.16262095711582092 0.080275064352089129
decision_type=2 2 2 2 2 2 2 2 2 2 2 2 2 2 2 2 2 2 2 2 2 2 2 2 2 2 2 2 2 2
left_child=1 2 4 -4 7 6 8 10 -6 12 22 15 14 -14 16 -12 17 18 -10 20 -20 -21 23 24 26 -25 27 28 -1 -30
right_child=-2 -3 3 -5 5 -7 -8 -9 9 -11 11 -13 13 -15 -16 -17 -18 -19 19 21 -22 -23 -24 25 -26 -27 -28 -29 29 -31
leaf_value=-4.8935322213172912 31.883033714975632 26.487829773766652 6.9197880840301513 -46.019862651824951 -8.1925248903386727 -14.486000452041626 22.051316368579865 -13.067283416563464 0.37914281105919251 17.246173278808595 -1.7485022737974161 7.8315840115418318 -8.0827815055847179 1.2589588892963692 13.398050513267519 0.63559838147075709 -3.5927575916051868 11.974097953671995 18.795281345367432 1.312810483023001 5.4212997468955386 6.0735809205234919 -4.2396419148221831 -5.3937492475762889 -2.3219078294670843 4.9645139321036957 -0.96924995601582697 16.726964073181154 0.4526519993436523 14.412143259048463
leaf_weight=30 28 28 20 20 34 20 21 31 157 25 520 37 33 349 20 705 32 23 25 242 34 138 339 193 455 23 147 20 32 20
leaf_count=30 28 28 20 20 34 20 21 31 157 25 520 37 33 349 20 705 32 23 25 242 34 138 339 193 455 23 147 20 32 20
internal_value=0 -0.236609 -0.436418 -19.55 -0.230063 2.42549 2.72402 -1.42985 2.35903 2.69182 -1.28675 -0.135781 2.34628 0.45195 3.42471 -0.376428 3.11831 3.46525 3.13689 4.12314 11.0882 3.04172 -2.44046 -1.7775 -1.00637 -4.29079 1.39752 4.80844 1.90148 5.82169
internal_weight=0 3773 3745 40 3705 1153 1133 2552 1112 1078 2521 1262 1053 382 671 1225 651 619 596 439 59 380 1259 920 704 216 249 102 82 52
internal_count=3801 3773 3745 40 3705 1153 1133 2552 1112 1078 2521 1262 1053 382 671 1225 651 619 596 439 59 380 1259 920 704 216 249 102 82 52
is_linear=0
shrinkage=0.1


Tree=37
num_leaves=31
num_cat=0
split_feature=79 6 41 10 1 9 32 49 32 94 17 107 103 67 148 56 20 73 72 91 146 16 10 9 83 126 61 18 152 107
split_gain=2.5613e+06 1.79511e+06 1.00371e+06 1.18213e+06 891152 902972 513170 460411 322715 262369 217707 188793 244525 371807 293519 269451 203824 188242 185883 170862 179661 168115 161378 170327 179576 196656 340178 150009 148861 147489
threshold=0.95861165551361127 3.4091898022688023e-07 1.3268729247034959e-15 1.577704409705753e-10 276223497.58143443 7.8049919590158931e-07 4.9539316734912194e-19 5.6950094470687331e-11 3.3838648480619086e-19 -0.16427630165955742 52.2817159936818 0.31950872301173355 0.17750000000000002 0.92401185069585501 0.23593405450752336 0.95214217933517087 9.2924539133198545e-11 110.50000000000001 0.96093584820484257 2.8051868680858854 0.25270607260951733 53.37453225182508 1.2029637609414493e-10 6.6915770192362248e-07 0.087446915415505297 0.32486535817558787 0.90933440403767551 40.308413403803122 0.52159500257008251 0.34628857632828125
decision_type=2 2 2 2 2 2 2 2 2 2 2 2 2 2 2 2 2 2 2 2 2 2 2 2 2 2 2 2 2 2
left_child=1 2 3 18 -4 6 7 10 11 -10 17 -9 13 14 -13 -16 -14 27 22 -12 -21 -22 23 24 28 -26 -27 -6 -1 -19
right_child=-2 -3 4 -5 5 -7 -8 8 9 -11 19 12 16 -15 15 -17 -18 29 -20 20 21 -23 -24 -25 25 26 -28 -29 -30 -31
leaf_value=-3.3767858590439546 30.133204538481579 25.002446062224251 -17.444911773388203 -26.520672502517698 4.377035912036896 22.329220733642579 -13.261175315856935 0.68630545175752267 3.4944164943695073 19.15513257565706 -1.9840609729479834 5.5992144013220262 2.9155209320694655 -5.2715772743225102 21.694411585807799 6.1218186187744141 -7.8245164195696519 -1.7980769198516322 7.2933607112793695 2.7520677487583503 0.6041642469804992 -6.4334154260785956 -10.682198463786733 6.6791990756988531 -1.7557323705876013 0.63138935159163923 15.094797706604005 -1.4443122744232109 -0.33405522805239474 -11.883538637490108
leaf_weight=895 28 28 26 20 50 20 25 229 20 23 157 155 67 25 25 20 24 29 21 535 318 38 22 22 261 87 20 386 196 29
leaf_count=895 28 28 26 20 50 20 25 229 20 23 157 155 67 25 25 20 24 29 21 535 318 38 22 22 261 87 20 386 196 29
internal_value=0 -0.223623 -0.412229 -2.36686 0.958945 1.17895 0.982655 1.14984 3.53071 11.8711 0.241954 2.87266 4.45708 6.22616 7.66337 14.7733 0.0829836 -1.4887 -2.04988 1.05774 1.59373 -0.147038 -2.18043 -2.05414 -2.18582 -0.275596 3.33483 -0.776726 -2.83015 -6.84081
internal_weight=0 3773 3745 1544 2201 2175 2155 2130 588 43 1542 545 316 225 200 45 91 494 1524 1048 891 356 1503 1481 1459 368 107 436 1091 58
internal_count=3801 3773 3745 1544 2201 2175 2155 2130 588 43 1542 545 316 225 200 45 91 494 1524 1048 891 356 1503 1481 1459 368 107 436 1091 58
is_linear=0
shrinkage=0.1


Tree=38
num_leaves=31
num_cat=0
split_feature=63 9 9 51 58 49 100 4 30 63 53 107 75 127 134 5 76 132 148 59 10 18 66 144 73 133 0 58 147 61
split_gain=2.37299e+06 2.83637e+06 4.40716e+06 769930 672040 431887 439866 294961 539542 374707 274755 232380 180036 332299 205583 171754 171416 213335 173491 156056 149108 169328 191114 172416 167124 198607 141995 177335 155276 136448
threshold=0.97542750338497342 1.8335700910234837e-06 1.2819876873269997e-06 3.8144607045416418e-15 2.3086520562959719e-19 2.9257958110135126e-10 0.89764364515025674 1.485961822084324e-12 6.5644205378085957e-19 0.59259278969248619 5.106599203956807e-13 0.47729837210786746 1.7883245603446334 286.50000000000006 2.4001182381527983 3.7902739005887253e-13 0.69583333333333341 0.63583333333333347 -0.09258837204862648 6.3538981867426077e-23 3.1322916750732197e-10 45.479303048068324 0.9085336009633489 0.065392786910373257 106.50000000000001 0.23269213166534206 3.2584786868020805e-13 1.0281597242709918e-20 0.19239794736964924 0.94798670222514059
decision_type=2 2 2 2 2 2 2 2 2 2 2 2 2 2 2 2 2 2 2 2 2 2 2 2 2 2 2 2 2 2
left_child=1 2 3 4 10 6 7 8 12 -10 -1 15 14 -14 16 -12 18 -18 -5 -17 -20 -22 23 -23 25 26 27 -25 -29 -21
right_child=-2 -3 -4 5 -6 -7 -8 -9 9 -11 11 -13 13 -15 -16 19 17 -19 20 29 21 22 -24 24 -26 -27 -28 28 -30 -31
leaf_value=-2.8072284317662461 29.004360784803119 -33.786498420715333 41.03677984751188 -1.9013190190792084 -19.544345798492433 15.656838880885733 -9.0695882642739711 -9.8815043131510425 3.757221603393555 22.648068840163095 -3.0340712734729056 9.2993309934933972 -14.204283399581909 1.8722526762220597 11.744784776369732 8.3575166713623776 1.9598949479072223 -11.037993020596712 1.5428303742116982 -0.43710290396359164 13.17512713432312 11.36419816017151 -4.3483619619298866 0.81415133703322651 12.017785102696648 -1.5344266267671978 1.7838782059795717 6.4214938474738084 18.469275131225587 7.8793433427810671
leaf_weight=706 28 25 26 100 20 22 38 21 21 21 250 24 20 36 21 21 28 23 572 1453 20 32 27 21 21 73 68 23 20 20
leaf_count=706 28 25 26 100 20 22 38 21 21 21 250 24 20 36 21 21 28 23 572 1453 20 32 27 21 21 73 68 23 20 20
internal_value=0 -0.215246 0.00868208 -0.277919 -1.28715 1.77176 1.51847 1.86294 2.07797 13.2026 -1.13955 -0.473614 1.65513 -3.86937 1.95005 -0.608104 1.74996 -3.9019 2.04499 -0.202152 2.49497 4.28063 3.65645 4.49417 3.52142 2.65106 4.96576 8.34652 12.0251 -0.324184
internal_weight=0 3773 3748 3722 2494 1228 1206 1168 1147 42 2474 1768 1105 56 1049 1744 1028 51 977 1494 877 305 285 258 226 205 132 64 43 1473
internal_count=3801 3773 3748 3722 2494 1228 1206 1168 1147 42 2474 1768 1105 56 1049 1744 1028 51 977 1494 877 305 285 258 226 205 132 64 43 1473
is_linear=0
shrinkage=0.1


Tree=39
num_leaves=31
num_cat=0
split_feature=77 107 4 63 70 57 29 20 70 112 66 8 56 92 20 125 143 53 33 31 115 100 123 5 61 26 111 21 85 3
split_gain=2.26788e+06 1.88184e+06 4.30563e+06 1.71438e+06 766592 1.18564e+06 661338 368407 309609 613612 292853 524199 296714 344054 246784 376260 243933 221421 176651 174919 166628 129163 128949 188163 200985 127285 194736 122914 167828 154010
threshold=1.7912689822415884 0.68129494175644845 4.4293797039590529e-12 0.91726836470787476 469.00000000000006 8.73294085244982e-19 7.4791109831373245e-20 1.0840117422477208e-10 394.50000000000006 0.22511309712491723 0.92019323317723167 0.95485522631218556 0.96407890196828228 4.5837012552628646 2.7801600255090739e-11 0.41065531816214867 1.0551203906430833 1.142493236876741e-11 3.4140318195776036e-13 6.5038434334185738e-18 248.50000000000003 0.95765642053760847 -0.26274034002660868 9.8127350969050549e-14 0.87591936680059346 7.1281448421127047 2526.5000000000005 1.7558954991801409e-09 3.1491447502707723 0.84927391585819367
decision_type=2 2 2 2 2 2 2 2 2 2 2 2 2 2 2 2 2 2 2 2 2 2 2 2 2 2 2 2 2 2
left_child=1 2 4 -3 5 6 20 8 10 -10 11 12 13 18 -15 16 19 -18 25 27 -1 22 23 24 -22 -8 -27 29 -29 -16
right_child=-2 3 -4 -5 -6 -7 7 -9 9 -11 -12 -13 -14 14 15 -17 17 -19 -20 -21 21 -23 -24 -25 -26 26 -28 28 -30 -31
leaf_value=6.1847272836245031 28.354713984898162 -1.082700161933899 44.129376641186809 -42.48771426677704 18.811249047233947 -24.042578760782877 -1.2689814498481669 13.542150144991666 -20.314461981058123 -0.6283165648187462 -10.952672152519227 14.109767750770814 -10.82004925069355 -3.7050083229939141 1.7146421785008155 15.538091544671492 3.4581034342447916 17.34040355205536 -9.1511039276485864 -6.625737184026967 -2.8842012321949007 -7.8934970259666448 -1.3372298202844637 -5.5010967870879046 8.7735843976338703 0.70664126407208405 10.955282928943635 1.1004949173684848 -7.7748529337919683 4.6053687920100499
leaf_weight=26 28 20 22 20 21 21 459 23 20 76 20 31 21 66 563 22 27 20 23 23 50 35 1268 183 21 254 20 118 26 274
leaf_count=26 28 20 22 20 21 21 459 23 20 76 20 31 21 66 563 22 27 20 23 23 50 35 1268 183 21 254 20 118 26 274
internal_value=0 -0.210425 0.0207544 -21.7852 -0.240736 -0.349162 -0.213549 0.956007 0.815686 -4.7296 1.08633 1.20999 1.00128 1.13228 2.23004 2.59511 2.32418 9.36547 -0.521621 1.99456 -1.75473 -1.88731 -1.74919 -3.80577 0.563876 -0.250846 1.45472 2.19666 -0.501998 2.66095
internal_weight=0 3773 3733 40 3711 3690 3669 2086 2063 96 1967 1947 1916 1895 1139 1073 1051 47 756 1004 1583 1557 1522 254 71 733 274 981 144 837
internal_count=3801 3773 3733 40 3711 3690 3669 2086 2063 96 1967 1947 1916 1895 1139 1073 1051 47 756 1004 1583 1557 1522 254 71 733 274 981 144 837
is_linear=0
shrinkage=0.1


Tree=40
num_leaves=31
num_cat=0
split_feature=102 6 9 41 49 124 49 133 129 98 18 81 113 26 122 140 57 35 136 10 109 99 98 38 89 31 88 105 92 99
split_gain=2.36642e+06 1.21545e+06 1.68347e+06 594623 354021 272267 201039 180819 285468 331788 231852 207776 201447 185556 206071 181582 223178 168962 237656 247716 173873 249123 518144 156125 142519 219146 143518 193801 110935 109013
threshold=0.96360172574030878 3.4091898022688023e-07 1.0319472697082579e-06 1.3662750131866771e-15 2.9257958110135126e-10 0.17914319718774441 6.1998108364682063e-11 0.23803503515265506 0.17743480087544081 1.0778326328301111 46.682582632999235 0.56556784747085576 -0.024626181908680846 7.1281448421127047 0.15340456235739428 -0.19610205181486481 2.5446336167002672e-20 2.5493948574050358e-15 2.313726718393911 4.1684012214878971e-11 9176.0000000000018 0.090833333333333335 1.0915908664969305 3.4640209025118113e-15 25.662498296174935 2.5810055923020148e-20 120.53270220212993 0.64583333333333337 4.1428315076743925 0.097500000000000017
decision_type=2 2 2 2 2 2 2 2 2 2 2 2 2 2 2 2 2 2 2 2 2 2 2 2 2 2 2 2 2 2
left_child=1 2 3 17 5 6 28 10 9 11 29 -9 -13 -12 23 -10 -17 20 19 -19 21 22 -1 -15 -22 -26 -27 -28 -5 -8
right_child=-2 -3 -4 4 -6 -7 7 8 15 -11 13 12 -14 14 -16 16 -18 18 -20 -21 24 -23 -24 -25 25 26 27 -29 -30 -31
leaf_value=1.0589237871377364 28.964187526702883 20.54242753641946 -22.85671603390665 -2.9746894950324552 14.147089033126832 -8.5229897791339511 6.5207603493758617 -8.3624000062545143 -2.3101507970690727 -13.321457041864811 0.29884290834412958 -3.1909802088370691 6.4848137915134432 5.9808020595415137 14.651234735761371 1.8281023697419601 15.772119597593942 -4.4161423462231957 3.5579923667907716 -15.743284578736013 -4.0975758691332231 -1.0588383137824049 18.467413601421175 -2.9255196204552285 -2.2470248359754601 9.1492895124554643 -2.5448596090981455 6.4962930279809079 0.56729403455383476 15.634357815697081
leaf_weight=92 28 28 33 94 20 31 35 24 20 23 137 39 48 81 21 22 24 75 25 26 268 377 21 26 543 25 66 37 1491 21
leaf_count=92 28 28 33 94 20 31 35 24 20 23 137 39 48 81 21 22 24 75 25 26 268 377 21 26 543 25 66 37 1491 21
internal_value=0 -0.214948 -0.370143 -0.170235 0.90439 0.780452 0.917398 2.62154 0.261389 -2.39006 4.09205 -0.124998 2.14739 2.8566 5.5942 5.64464 9.10324 -1.66089 -5.17132 -7.33204 -1.35136 0.175622 4.29413 3.81665 -2.14819 -1.3696 2.35261 0.702933 0.357233 9.93836
internal_weight=0 3773 3745 3712 2157 2137 2106 521 200 134 321 111 87 265 128 66 46 1555 126 101 1429 490 113 107 939 671 128 103 1585 56
internal_count=3801 3773 3745 3712 2157 2137 2106 521 200 134 321 111 87 265 128 66 46 1555 126 101 1429 490 113 107 939 671 128 103 1585 56
is_linear=0
shrinkage=0.1


Tree=41
num_leaves=31
num_cat=0
split_feature=141 137 4 50 7 56 130 107 37 3 7 0 60 104 107 99 98 102 123 26 113 22 26 4 120 81 74 20 115 21
split_gain=2.1201e+06 2.19376e+06 2.93469e+06 640047 1.1048e+06 561691 345095 322641 316366 293881 283204 244557 181438 210381 165824 199164 241059 157790 156387 146729 144877 177880 183673 159958 147532 135729 135446 181419 142480 132475
threshold=0.52326077783167746 22.148669105175372 4.4293797039590529e-12 7.9364054933937407e-11 1.0708400422864955e-07 0.74357629603200637 0.48765627078092449 0.35627059633965141 2.3189468611065962e-14 0.95657732067954293 7.2832619791134605e-08 1.769584538478831e-13 0.95651688290516435 0.42112432374865294 0.32027023520611225 0.055833333333333339 1.0533253116415915 0.95975617813888892 -0.14743285659394031 7.1281448421127047 -0.059325628413383708 7.5178469585921919 7.1013012036443213 6.1677128325079626e-13 0.04083333333333334 0.62164572614620173 0.9359373615074289 7.4457408082193846e-11 318.50000000000006 1.8139008121111271e-09
decision_type=2 2 2 2 2 2 2 2 2 2 2 2 2 2 2 2 2 2 2 2 2 2 2 2 2 2 2 2 2 2
left_child=1 -1 3 4 5 9 7 8 14 11 12 17 13 -9 19 16 -16 18 -3 -7 -17 22 23 29 -25 26 28 -28 -20 -22
right_child=-2 2 -4 -5 -6 6 -8 10 -10 -11 -12 -13 -14 -15 15 20 -18 -19 25 -21 21 -23 -24 24 -26 -27 27 -29 -30 -31
leaf_value=-29.727813056945806 27.415313068458012 -3.6759912978832063 35.604201781231424 16.403790100761082 -22.178350935811583 -0.7244089351439813 11.071664839982986 -1.2318707157611506 12.081151709189783 -13.535134233747209 -13.423236698196048 9.3620450115203848 -6.9386241454704134 9.1720613979157957 3.2521986751556398 -0.87674439793977987 16.019420351300919 -9.6482872700691225 -1.0043941572468769 1.9568598139080509 0.98114595736731725 -6.6081720547242604 4.9362597529758823 -0.98864643454551704 9.4874810567716263 -2.3411980426656647 0.49558835073753643 10.66281043291092 7.4165068325542265 -7.3962279224395759
leaf_weight=25 28 290 23 23 23 689 32 261 26 21 21 20 51 21 50 195 21 25 465 290 336 22 212 20 41 449 54 26 21 20
leaf_count=25 28 290 23 23 23 689 32 261 26 21 21 20 51 21 50 195 21 25 465 290 336 22 212 20 41 449 54 26 21 20
internal_value=0 -0.203453 -0.00651904 -0.226397 -0.329718 -0.193127 0.759197 0.614206 1.12518 -1.79631 -2.16006 -1.61371 -1.44977 -0.45711 0.97494 1.94124 7.02842 -1.77876 -1.628 0.0698382 1.5143 2.23051 2.53965 1.32123 6.05269 -1.04286 -0.0129007 3.79994 -0.640528 0.510507
internal_weight=0 3773 3748 3725 3702 3679 2308 2276 1922 1371 354 1350 333 282 1896 917 71 1330 1305 979 846 651 629 417 61 1015 566 80 486 356
internal_count=3801 3773 3748 3725 3702 3679 2308 2276 1922 1371 354 1350 333 282 1896 917 71 1330 1305 979 846 651 629 417 61 1015 566 80 486 356
is_linear=0
shrinkage=0.1


Tree=42
num_leaves=31
num_cat=0
split_feature=100 43 18 36 59 56 53 130 107 7 32 121 23 85 1 17 133 4 21 127 18 56 92 60 104 137 123 77 75 47
split_gain=2.22328e+06 956607 1.60448e+06 875512 518149 436505 452229 348148 267059 316911 282451 247408 242721 230945 176784 159647 184777 159461 153483 232483 216210 177801 156648 147876 169628 145139 152541 142214 137820 150323
threshold=0.96323017047029136 7.5584622818791032e-12 52.837099209877501 5.5361046043956893e-14 4.6535552796308069e-19 0.74736879165149006 1.3112210810166987e-11 0.48765627078092449 0.35627059633965141 6.8844819222890987e-08 3.3838648480619086e-19 0.092646705151834055 7.4663489861533892 3.0921390400308706 1690624951.7748299 47.587735659817305 0.24576825086141274 1.5051441977967493e-13 1.6407061425220555e-09 296.50000000000006 45.313970419813636 0.95329038010251932 4.6707182391397266 0.95651688290516435 0.42112432374865294 32.757732953206315 -0.11425910862474258 1.7870668966522254 1.7893137032193778 1.6962371805855863e-13
decision_type=2 2 2 2 2 2 2 2 2 2 2 2 2 2 2 2 2 2 2 2 2 2 2 2 2 2 2 2 2 2
left_child=1 2 3 4 5 6 14 8 10 23 12 -12 13 15 -1 -7 -17 25 19 20 -19 22 -21 24 -10 26 -15 -16 -27 -30
right_child=-2 -3 -4 -5 -6 7 -8 -9 9 -11 11 -13 -14 17 27 16 -18 18 -20 21 -22 -23 -24 -25 -26 28 -28 -29 29 -31
leaf_value=7.9141163313388834 28.074553281920302 18.206595179012844 -26.676879012066383 18.102826441251317 -15.274583078467328 5.4203066814786354 -16.566070094108582 10.515420728410994 -1.0940250530373306 -13.694420263983986 2.0634963860878579 16.657004855927966 -10.222051675319673 9.721843712146466 -0.8605969394033629 0.045531483616415909 -3.8571019553903785 15.035905404524371 0.38346128643642774 0.12817545655237531 4.6571340176931635 7.21459868002911 8.8774712085723877 -6.2447616712719789 8.2548551423209044 -0.36948358137886245 0.8331778834660849 -3.1021813626344481 -0.75164191424846649 -12.865447745323181
leaf_weight=20 28 28 23 26 23 39 20 35 256 22 26 21 20 26 909 381 178 22 275 293 229 49 22 51 21 231 75 411 21 20
leaf_count=20 28 28 23 26 23 39 20 35 256 22 26 21 20 26 909 381 178 22 275 293 229 49 22 51 21 231 75 411 21 20
internal_value=0 -0.208345 -0.346027 -0.183316 -0.311953 -0.218258 -1.63994 0.617664 0.465591 -2.07565 0.926916 8.584 0.735591 0.853352 -1.41716 -0.765593 -1.19717 1.61988 2.3473 3.22545 5.56683 1.61092 0.739237 -1.29635 -0.385265 -0.115785 3.12135 -1.55854 -1.31781 -6.66082
internal_weight=0 3773 3745 3722 3696 3673 1360 2313 2278 350 1928 47 1881 1861 1340 598 559 1263 890 615 251 364 315 328 277 373 101 1320 272 41
internal_count=3801 3773 3745 3722 3696 3673 1360 2313 2278 350 1928 47 1881 1861 1340 598 559 1263 890 615 251 364 315 328 277 373 101 1320 272 41
is_linear=0
shrinkage=0.1


Tree=43
num_leaves=31
num_cat=0
split_feature=86 113 4 22 70 59 46 96 31 66 66 90 100 20 154 51 72 122 86 92 143 126 53 49 105 125 65 126 66 113
split_gain=2.17827e+06 1.40046e+06 3.29836e+06 1.80467e+06 647007 778602 361060 354918 436358 289048 264851 174626 171187 160399 156165 197742 164515 144351 149758 173850 126851 121544 140801 252188 127288 114854 102560 98889.4 145660 118337
threshold=95.500000000000014 0.15753562231836951 4.4293797039590529e-12 7.241538219540435 469.00000000000006 1.4660006772344913e-18 1.8727128040547432e-12 0.20081274443734112 1.245097632003933e-17 0.92019323317723167 0.9146265058627967 0.98722388190083243 0.95765642053760847 3.8386144265480813e-11 0.986959739839672 2.2395367488218807e-15 0.91691459224576255 0.59191092372104548 178.50000000000003 4.6731463533577742 0.99168978320965573 0.24499713806046783 1.2310523170514479e-11 1.0447906232411504e-10 0.63416666666666677 0.34309514765140842 0.75896449396470256 0.21297614214337768 0.9085336009633489 1.0000000180025095e-35
decision_type=2 2 2 2 2 2 2 2 2 2 2 2 2 2 2 2 2 2 2 2 2 2 2 2 2 2 2 2 2 2
left_child=-1 2 4 -3 5 6 12 8 9 10 13 -12 17 20 15 -15 -16 18 -2 -20 -8 26 23 -23 -24 -21 -17 28 -28 -29
right_child=1 3 -4 -5 -6 -7 7 -9 -10 -11 11 -13 -14 14 16 21 -18 -19 19 25 -22 22 24 -25 -26 -27 27 29 -30 -31
leaf_value=27.788881566269055 5.6631636192693433 -0.28065192781645676 40.520124199390409 -38.262331611459906 17.303370320229302 -19.976401119232179 2.310909052552848 -12.074954391661144 13.386235155378069 -10.334158262999162 2.0309992980211975 14.941797967390583 -8.7658032680379936 9.6635253199824582 -10.00924212565789 0.89248106242625491 1.4721719791491827 -7.90500189503034 -0.54745819347826852 -1.9720499641538323 -5.605820997793284 -0.71007530970446364 0.82133157504722476 -12.28588815689087 7.9631231746365945 -6.0913567824827304 2.9524371624309969 3.2888092039152981 -5.4959055892615156 13.094341845512389
leaf_weight=28 34 29 20 22 21 20 29 21 28 23 20 22 29 27 26 607 24 30 1457 273 67 319 128 20 31 90 282 32 22 20
leaf_count=28 34 29 20 22 21 20 29 21 28 23 20 22 29 27 26 607 24 30 1457 273 67 319 128 20 31 90 282 32 22 20
internal_value=0 -0.206225 0.0192965 -16.6649 -0.199509 -0.299362 -0.191867 0.84704 1.00417 0.800109 0.952906 8.7938 -1.14117 0.751365 0.998898 1.18361 -4.49816 -1.0238 -0.912455 -1.0353 -3.21431 1.0269 -0.241455 -1.39301 2.21376 -2.99337 1.68281 3.03035 2.34104 7.06017
internal_weight=0 3773 3722 51 3702 3681 3661 1748 1727 1699 1676 42 1913 1634 1538 1488 50 1884 1854 1820 96 1461 498 339 159 363 963 356 304 52
internal_count=3801 3773 3722 51 3702 3681 3661 1748 1727 1699 1676 42 1913 1634 1538 1488 50 1884 1854 1820 96 1461 498 339 159 363 963 356 304 52
is_linear=0
shrinkage=0.1


Tree=44
num_leaves=31
num_cat=0
split_feature=63 9 7 10 18 57 50 88 132 142 15 2 93 104 150 77 96 49 65 99 79 9 66 149 128 20 120 99 71 140
split_gain=2.05181e+06 2.67988e+06 2.87151e+06 456769 975744 339010 342138 210342 213356 271961 200903 172456 191367 171854 389571 189810 155211 152460 147637 153059 136958 234676 188225 173062 140662 135642 133623 132798 121711 112673
threshold=0.97542750338497342 1.8335700910234837e-06 1.2352610546584618e-07 1.0009108041845459e-09 49.971170061633721 1.855766096280437e-19 1.75505866803225e-11 112.71623973869013 0.6708333333333335 0.15276797423426264 48.580188433421007 1.3254682254897332e-06 0.22416666666666671 0.47747713915657558 0.59416666666666684 1.7912689822415884 0.097761561969703412 1.1095886323806614e-10 0.75349673848419496 0.084166666666666681 0.81418606453628461 4.6747640350557001e-07 0.90588127891559045 0.52148097670974558 0.30830186294928114 9.3840797708550619e-11 0.047500000000000007 0.052500000000000012 0.8772490556483189 -0.034702077685146319
decision_type=2 2 2 2 2 2 2 2 2 2 2 2 2 2 2 2 2 2 2 2 2 2 2 2 2 2 2 2 2 2
left_child=1 2 3 4 5 6 10 17 9 11 13 12 18 15 -15 20 -14 25 -9 -20 21 22 -1 -23 28 26 29 -26 -22 -8
right_child=-2 -3 -4 -5 -6 -7 7 8 -10 -11 -12 -13 16 14 -16 -17 -18 -19 19 -21 24 23 -24 -25 27 -27 -28 -29 -30 -31
leaf_value=-1.3365482064783674 26.970171992267883 -32.832192484796046 32.51150846128111 11.869630720538479 -21.813905234563919 -11.360812932473642 -0.80397844513257355 -1.6252717261729033 -5.1785831400981319 13.849360014884562 0.64404269100020595 0.51227120933532722 14.384292236963908 10.912605083616157 -1.1426263212205863 -11.05314295053482 5.1194976085424422 -8.2531515325818745 9.6793943405151381 0.039445882184164865 -4.0313582896048787 9.1437264442443844 6.7964068675863336 -0.21791639648377897 -14.28282953977585 -5.1302056842380104 -0.18943379526957871 -4.2603493308409668 0.88125321690629177 7.4547229492439415
leaf_weight=1518 28 25 27 31 21 27 24 46 26 27 936 125 33 38 91 20 40 21 40 28 131 39 29 40 20 36 160 39 82 53
leaf_count=1518 28 25 27 31 21 27 24 46 26 27 936 125 33 38 91 20 40 21 40 28 131 39 29 40 20 36 160 39 82 53
internal_value=0 -0.20015 0.0175133 -0.218267 -0.319818 -0.196794 -0.114029 1.9481 3.55151 4.22108 -0.569591 3.38786 5.31005 -1.12453 2.40853 -1.36216 9.30769 -0.0425448 2.75016 5.71 -1.26004 -0.912605 -1.18409 4.40365 -3.33697 0.58904 1.45779 -7.6578 -2.14012 4.88058
internal_weight=0 3773 3748 3721 3690 3669 3642 659 365 339 2983 312 187 2047 129 1918 73 294 114 68 1898 1626 1547 79 272 273 237 59 213 77
internal_count=3801 3773 3748 3721 3690 3669 3642 659 365 339 2983 312 187 2047 129 1918 73 294 114 68 1898 1626 1547 79 272 273 237 59 213 77
is_linear=0
shrinkage=0.1


Tree=45
num_leaves=31
num_cat=0
split_feature=79 6 57 63 56 81 53 19 118 40 32 75 75 76 56 68 147 18 98 36 136 86 77 73 33 154 134 22 27 38
split_gain=2.04726e+06 716445 700050 426182 267873 504167 323468 253190 214309 211249 304409 167785 177688 164333 245815 244556 192469 179375 210652 151562 131332 136889 128739 120318 113473 172148 105740 104202 142880 103513
threshold=0.95861165551361127 3.4091898022688023e-07 8.73294085244982e-19 0.97542750338497342 0.74736879165149006 0.80244709524153901 1.3625442698908692e-11 53.27263851234121 0.44283955393178409 1.202542664649856e-14 5.3257615193836931e-19 1.7893137032193778 1.7796393566100741 0.56083333333333341 0.96270715155861775 217.50000000000003 0.15117986074572548 33.159006302766478 1.1268479535144749 1.1152319607831001e-15 2.3877246157637333 223.50000000000003 1.7903707738274866 94.500000000000014 2.7780045989784924e-14 0.97074427154131848 2.4379603360623991 7.1256484798631066 7.255882646646115 2.7573315284568894e-15
decision_type=2 2 2 2 2 2 2 2 2 2 2 2 2 2 2 2 2 2 2 2 2 2 2 2 2 2 2 2 2 2
left_child=1 2 3 4 6 9 7 8 26 10 11 12 20 14 15 -14 19 -17 22 -15 27 -22 -19 -13 -10 -26 -1 -6 -29 -30
right_child=-2 -3 -4 -5 5 -7 -8 -9 24 -11 -12 23 13 16 -16 17 -18 18 -20 -21 21 -23 -24 -25 25 -27 -28 28 29 -31
leaf_value=-0.26004828448557116 26.940274998119904 15.736646005085536 -17.343122549851739 -14.414861270359584 4.8868441751774618 15.25777995897376 -12.742729967832567 9.8639633263860436 -3.0956932216882707 8.3218619447765931 -11.183000908727232 3.6541810890038811 12.210620533170239 -0.79385534638450261 -7.6812242221832285 -5.3955066566665977 -2.0239716222243653 3.4106746165272428 12.582791244983675 10.839013351996741 -6.4946257674694072 1.9951029713455815 -4.5118594906546852 -4.0663229321870276 -2.6729561805725099 -15.793484286069869 -2.656616847770183 -2.3921045945122326 -0.37173188859873485 3.3169189728539568
leaf_weight=939 28 28 24 21 34 23 24 21 122 33 23 24 31 21 20 24 154 303 24 24 20 377 22 127 20 20 229 348 606 87
leaf_count=939 28 28 24 21 34 23 24 21 122 33 23 24 31 21 20 24 154 303 24 24 20 377 22 127 20 20 229 348 606 87
internal_value=0 -0.199928 -0.31908 -0.209277 -0.12865 0.52569 -1.23508 -1.03065 -1.20267 0.378497 0.26297 0.380182 0.612225 2.02784 3.1405 3.67623 -0.342846 2.96694 3.54201 5.41034 0.013087 1.56741 2.87438 -2.83922 -4.61113 -9.23322 -0.729923 -0.560928 -0.738857 0.0913455
internal_weight=0 3773 3745 3721 3700 2325 1375 1351 1330 2302 2269 2246 2095 623 424 404 199 373 349 45 1472 397 325 151 162 40 1168 1075 1041 693
internal_count=3801 3773 3745 3721 3700 2325 1375 1351 1330 2302 2269 2246 2095 623 424 404 199 373 349 45 1472 397 325 151 162 40 1168 1075 1041 693
is_linear=0
shrinkage=0.1


Tree=46
num_leaves=31
num_cat=0
split_feature=77 107 4 5 100 128 29 29 147 32 41 85 35 68 7 66 73 55 133 43 88 98 92 132 8 98 33 120 133 107
split_gain=1.90085e+06 1.38224e+06 2.08114e+06 1.25039e+06 488048 461869 545578 245684 792072 380816 213862 184711 181312 154270 321605 213774 141836 127912 116887 212644 137550 137154 151247 126418 107352 91943 129954 89377 83084.9 206377
threshold=1.7912689822415884 0.68129494175644845 4.4293797039590529e-12 1.638130551564732e-13 0.96323017047029136 -0.32938522418310962 2.09586487511936e-18 7.5371450319295306e-19 0.35332745896765289 4.9539316734912194e-19 1.3662750131866771e-15 3.1167628320221565 2.5493948574050358e-15 249.50000000000003 3.3810898246394319e-08 0.888495775420858 35.500000000000007 1.1720200099868401e-11 0.24100671752410655 3.1382228738966561e-12 116.25757667213308 1.1235819683931985 4.6486569436331715 0.65416666666666679 0.88817980471308855 1.2333280095752372 1.8345315333680804e-14 0.047500000000000007 0.41191963012337002 0.33325056916713203
decision_type=2 2 2 2 2 2 2 2 2 2 2 2 2 2 2 2 2 2 2 2 2 2 2 2 2 2 2 2 2 2
left_child=1 2 4 -3 5 -1 7 9 -9 10 12 -10 13 14 24 25 -12 -14 19 23 -21 28 -23 -18 -7 -15 -27 -25 -20 -30
right_child=-2 3 -4 -5 -6 6 -8 8 11 -11 16 -13 17 15 -16 -17 18 -19 21 20 -22 22 -24 27 -26 26 -28 -29 29 -31
leaf_value=12.478453617260374 25.959090805053712 -1.002693455219269 30.671400781111284 -36.363507080078129 -15.755429096221924 -0.33286900089876448 -16.263445989290872 22.6151624083519 3.5940803705117639 -12.775137519836427 -3.2203660212226755 -8.2261243677139273 -3.3435757221498843 -1.3647782469473992 12.902059860229492 -4.8160314729339202 1.5397077055435648 -12.134504826068879 -0.42782656304237082 3.0181970338026685 14.247068042755126 1.843995933532715 -9.0572258465630675 -0.23768175481350495 5.3016156925095457 -0.24822938995701926 7.9185311070194961 -5.7390674332209999 0.52692710567857615 10.968021148184071
leaf_weight=29 28 20 22 20 20 557 21 20 39 24 97 20 96 457 20 171 965 20 569 24 20 20 35 189 36 70 27 35 107 23
leaf_count=29 28 20 22 20 20 557 21 20 39 24 97 20 96 457 20 171 965 20 569 24 20 20 35 189 36 70 27 35 107 23
internal_value=0 -0.192646 0.0054834 -18.6831 -0.176314 -0.0918972 -0.191444 -0.0987464 5.41709 -0.22108 -0.135919 -0.412769 -1.06671 -0.737914 0.429839 -1.72527 0.513494 -4.85925 0.695771 1.29554 8.12223 -0.285027 -5.09315 1.04292 0.00919078 -0.771262 2.02499 -1.09727 0.0932938 2.3742
internal_weight=0 3773 3733 40 3711 3691 3662 3641 79 3562 3538 59 1454 1338 613 725 2084 116 1987 1233 44 754 55 1189 593 554 97 224 699 130
internal_count=3801 3773 3733 40 3711 3691 3662 3641 79 3562 3538 59 1454 1338 613 725 2084 116 1987 1233 44 754 55 1189 593 554 97 224 699 130
is_linear=0
shrinkage=0.1


Tree=47
num_leaves=31
num_cat=0
split_feature=102 113 62 83 19 73 4 57 9 77 24 103 54 152 115 51 77 26 140 117 155 108 2 6 131 86 19 122 117 150
split_gain=2.06429e+06 523081 1.1347e+06 939122 824741 3.19331e+06 876230 453506 390383 175827 172355 273898 189835 172387 197523 203571 178907 156487 153291 205010 122403 127296 122270 131136 110442 149546 128516 108976 108345 154077
threshold=0.96360172574030878 0.17907212759143501 0.8764238585493368 0.22158058171250919 55.39028203547133 92.500000000000014 2.9022980504961621e-12 1.855766096280437e-19 7.2703414772437599e-07 1.7903707738274866 7.476245075202125 0.14583333333333334 1.1498513055705285e-11 0.42652719056577054 297.50000000000006 1.197989840628055e-14 1.7890480412791299 6.9301974592989506 0.082408188089052828 0.40684437541238294 0.20585343334720765 0.051308389448959123 1.2230152234661002e-06 1.0854850757661486e-07 -0.26901380532986335 232.50000000000003 52.648627253980351 0.59191092372104548 0.45004014719033897 0.58583333333333343
decision_type=2 2 2 2 2 2 2 2 2 2 2 2 2 2 2 2 2 2 2 2 2 2 2 2 2 2 2 2 2 2
left_child=1 3 -3 4 6 -6 7 8 9 10 12 -12 27 14 15 16 24 -16 19 -11 21 -19 23 -23 25 -14 -26 28 -1 -30
right_child=-2 2 -4 -5 5 -7 -8 -9 -10 18 11 -13 13 -15 17 -17 -18 20 -20 -21 -22 22 -24 -25 26 -27 -28 -29 29 -31
leaf_value=-0.44633499455105147 27.052060086386547 2.1719059952374162 -28.789725303649902 18.516587062235232 16.388852432795936 -35.196947266374316 20.339572243463426 -14.143594613800879 12.929565870632297 -3.15343237655089 -0.66264417213062909 -14.827621521949769 -7.8842239694595335 -7.616815498897008 -5.406012849661769 12.752599623203279 11.064011138418447 -0.44211058121880681 -8.0135260730981823 7.397812595150687 -3.2880332711912121 3.6734374766432967 0.79851680429124128 13.16574836210771 2.2107797019985407 2.3041316172655892 10.43460017681122 -5.8858632121767318 8.8436233783590392 0.78809077439417363
leaf_weight=2217 28 29 20 27 21 28 21 23 23 113 43 20 25 21 49 20 23 153 48 22 65 43 67 22 381 34 20 35 29 131
leaf_count=2217 28 29 20 27 21 28 21 23 23 113 43 20 25 21 49 20 23 153 48 22 65 43 67 22 381 34 20 35 29 131
internal_value=0 -0.200757 -10.4655 -0.0656951 -0.201406 -13.0887 -0.0283025 -0.146231 -0.0569023 -0.140312 0.0223011 -5.15946 0.120188 1.33982 1.54834 2.86632 2.45695 -0.11317 -3.15976 -1.43397 0.627828 1.52092 3.79625 6.88622 2.0266 -2.01297 2.62095 -0.346528 -0.264964 2.24816
internal_weight=0 3773 49 3724 3697 49 3648 3627 3604 3581 3398 63 3335 923 902 503 483 399 183 135 350 285 132 65 460 59 401 2412 2377 160
internal_count=3801 3773 49 3724 3697 49 3648 3627 3604 3581 3398 63 3335 923 902 503 483 399 183 135 350 285 132 65 460 59 401 2412 2377 160
is_linear=0
shrinkage=0.1


Tree=48
num_leaves=31
num_cat=0
split_feature=86 20 4 107 53 57 31 112 79 22 46 130 8 3 18 122 77 75 92 126 98 105 128 107 78 67 43 32 66 66
split_gain=2.06743e+06 1.11758e+06 3.37947e+06 1.15911e+06 474323 412061 337967 269412 223257 167908 156909 151089 125040 117899 114203 102949 102699 89324.3 226947 227270 164803 136601 123250 90576.6 87976.6 85985.6 92327.8 91394.1 84765.3 163574
threshold=95.500000000000014 1.307075465269218e-10 4.4293797039590529e-12 0.53298416299731777 1.1618784027815377e-10 1.855766096280437e-19 7.5460280572570452e-18 0.22472290565526312 0.88700129862394894 7.5455877740819579 1.8727128040547432e-12 0.36889106654117348 -0.13470426223399043 0.94825210641949653 42.172811723716229 0.59191092372104548 1.7912689822415884 1.7796393566100741 4.6581263016699204 0.36680696797072232 1.0915908664969305 0.60250000000000015 0.3143987449324836 0.33297594056461638 0.0011769748038310444 0.92467707173756819 2.4298119330458748e-12 1.8224158062592158e-19 0.90588127891559045 0.91160529751346309
decision_type=2 2 2 2 2 2 2 2 2 2 2 2 2 2 2 2 2 2 2 2 2 2 2 2 2 2 2 2 2 2
left_child=-1 2 3 4 5 6 8 -8 9 10 15 14 -12 17 -10 16 28 24 20 21 22 23 -19 -20 -14 26 -26 -28 -2 -30
right_child=1 -3 -4 -5 -6 -7 7 -9 11 -11 12 -13 13 -15 -16 -17 -18 18 19 -21 -22 -23 -24 -25 25 -27 27 -29 29 -31
leaf_value=27.072648358770778 -0.57584303133434034 -23.205698903401696 40.924513664245609 -18.148764040735035 13.609631031036379 -11.335466301079954 17.237634887695314 0.82387488842010503 -4.7247019899064213 -7.0416958023520086 -6.9351483447211129 -9.6509771486123412 -2.8738650394830767 7.5107325168756338 1.8411317220954009 -6.4343868223826099 -7.4779216334933327 4.5932142349524483 1.4202560874074699 -10.394055413007736 11.608669899191176 -1.1872251350032397 -2.6065863412002042 8.9163255550243239 0.37163697488486291 -5.9756495952606201 9.5295601390656977 1.92684208676219 8.8408050060272227 -1.5508751739155162
leaf_weight=28 1677 21 20 36 25 33 20 20 69 34 21 36 82 26 43 30 21 132 40 20 28 121 29 27 996 20 21 64 28 33
leaf_count=28 1677 21 20 36 25 33 20 20 69 34 21 36 82 26 43 30 21 132 40 20 28 121 29 27 996 20 21 64 28 33
internal_value=0 -0.20091 -0.0721521 -0.291856 -0.117925 -0.211411 -0.110506 9.03075 -0.212132 -0.0489794 0.0206202 -4.01534 0.731304 0.83155 -2.20389 -0.625709 -0.526641 0.72164 2.01958 -0.25954 4.52781 0.8186 3.29636 4.44106 0.286069 0.521413 0.641618 3.80516 -0.44265 3.21908
internal_weight=0 3773 3752 3732 3696 3671 3638 40 3598 3450 3416 148 1627 1606 112 1789 1759 1580 397 208 189 188 161 67 1183 1101 1081 85 1738 61
internal_count=3801 3773 3752 3732 3696 3671 3638 40 3598 3450 3416 148 1627 1606 112 1789 1759 1580 397 208 189 188 161 67 1183 1101 1081 85 1738 61
is_linear=0
shrinkage=0.1


Tree=49
num_leaves=31
num_cat=0
split_feature=63 9 9 4 9 77 32 79 121 50 140 18 5 42 66 97 77 72 58 21 67 14 112 91 100 18 5 144 72 142
split_gain=1.85607e+06 2.4125e+06 2.01149e+06 329937 288229 932795 295055 172102 167587 163273 173391 154907 121020 160870 159521 106318 93218.6 120253 88476.8 83746.4 131288 232417 88226.2 117367 85728.9 91350.4 78673.1 78112.1 69503.4 71775.9
threshold=0.97542750338497342 1.8335700910234837e-06 1.2819876873269997e-06 2.9022980504961621e-12 7.8049919590158931e-07 1.7845125142991021 5.3257615193836931e-19 0.88700129862394894 0.08761020033506127 4.0518058600333699e-11 -0.29539158665008131 42.172811723716229 3.6675713475723e-13 4.5045057324774768e-14 0.75837089184666462 5.377517213679103 1.7900523976448304 0.96093584820484257 1.0281597242709918e-20 1.3959731658194632e-09 0.91658447481440819 1035449.6841378519 0.20789209589198343 3.1370026063691365 -0.46472764015219753 43.54426953789153 2.1497490673870619e-13 0.12363885635044398 -0.27425134394061418 0.18464586551632992
decision_type=2 2 2 2 2 2 2 2 2 2 2 2 2 2 2 2 2 2 2 2 2 2 2 2 2 2 2 2 2 2
left_child=1 2 3 4 6 -6 7 9 11 12 -11 -9 18 -14 -15 -16 17 -17 19 20 22 -22 23 -1 -24 26 28 -13 -26 -30
right_child=-2 -3 -4 -5 5 -7 -8 8 -10 10 -12 27 13 14 15 16 -18 -19 -20 -21 21 -23 24 -25 25 -27 -28 -29 29 -31
leaf_value=-0.32610172629356388 25.651517319679261 -31.151705140113833 27.734083923926722 -12.986927714347841 21.228674366076788 -8.012766699790955 -12.31788387954235 -4.4214519192425303 -9.4084850876074704 -1.7389551854133609 10.13033477216959 -1.0723811507225036 8.2206425857543959 -5.8098089862953541 -1.785994883533164 0.47144424019832459 -3.8551270939865896 6.9514304720122242 -7.5922649966020677 -3.9063501031899999 12.656896537542345 -1.0849722106009723 -7.8921841144561773 8.7917280197143555 -5.2283293380969909 -7.3785012338472455 3.3789310614267984 7.5527271997360961 -0.26088141142601695 -3.598610608587042
leaf_weight=48 28 25 26 20 24 20 20 71 36 20 32 21 25 44 231 2296 49 29 21 88 20 32 20 20 41 23 39 21 331 80
leaf_count=48 28 25 26 20 24 20 20 71 36 20 32 21 25 44 231 2296 49 29 21 88 20 32 20 20 41 23 39 21 331 80
internal_value=0 -0.190364 0.0161553 -0.177468 -0.108265 7.93711 -0.205038 -0.138448 -3.46672 0.00368834 5.56522 -1.57377 -0.0804548 0.236517 0.161166 0.26202 0.4613 0.55227 -1.19131 -1.01015 -0.620447 4.20036 -1.03686 2.35561 -1.46886 -1.21893 -0.930395 3.24017 -1.30222 -0.910561
internal_weight=0 3773 3748 3722 3702 44 3658 3638 149 3489 52 113 3437 2674 2649 2605 2374 2325 763 742 654 52 602 68 534 514 491 42 452 411
internal_count=3801 3773 3748 3722 3702 44 3658 3638 149 3489 52 113 3437 2674 2649 2605 2374 2325 763 742 654 52 602 68 534 514 491 42 452 411
is_linear=0
shrinkage=0.1


Tree=50
num_leaves=31
num_cat=0
split_feature=141 137 4 63 53 102 51 17 1 9 32 21 65 77 64 20 101 136 83 20 69 142 75 84 103 113 90 87 123 96
split_gain=1.82644e+06 1.43575e+06 1.18553e+06 685790 484753 555732 227098 334027 330832 199098 199990 135020 143812 122721 98906.7 276357 89314.8 151272 281923 94561.7 105016 151402 110494 145099 179574 282965 106004 107678 95209.7 96826.8
threshold=0.52326077783167746 22.148669105175372 4.4293797039590529e-12 0.97542750338497342 1.1618784027815377e-10 0.95975617813888892 1.5066989932774682e-14 55.105599489054669 331270956.60763186 7.8049919590158931e-07 4.9539316734912194e-19 6.5870530586109178e-10 0.32912277873005541 1.7911609605109586 0.6275804252418572 2.9374622651256438e-11 -0.26053283274549088 2.541772484900735 0.068028395620210305 1.0520423270513731e-10 210.50000000000003 0.19943008713442778 1.7799293141240176 1.103766918957912 0.17416666666666669 1.0000000180025095e-35 0.939025901900573 5.7667869662682962 -0.13910215430500653 0.13479423698755102
decision_type=2 2 2 2 2 2 2 2 2 2 2 2 2 2 2 2 2 2 2 2 2 2 2 2 2 2 2 2 2 2
left_child=1 -1 3 4 5 6 8 -8 -3 10 11 13 -13 14 15 -10 -14 19 -19 20 21 -18 -22 24 25 -24 27 -25 -28 -30
right_child=-2 2 -4 -5 -6 -7 7 -9 9 -11 -12 12 16 -15 -16 -17 17 18 -20 -21 22 -23 23 26 -26 -27 28 -29 29 -31
leaf_value=-24.073830211162569 25.445924426828114 -12.646355641455878 22.604173925648567 -17.383460571454918 14.410163489631984 -13.485390696987029 15.869120602174238 -0.73039106086448391 -2.373925545728869 9.4256840476935562 -10.088374524116517 -4.2229668358394079 -2.4789929789192273 -8.6335129521109835 -1.4018429927250244 12.060918960117158 -5.0026302944654715 -1.1864130953083867 15.047391147017478 6.6318944404522586 0.090356316125950034 0.28792752044184228 3.4581459325292836 10.108934502303601 0.59522889959315461 16.852784546216331 5.2555423394629832 0.73143895149230964 0.55851828566761597 -4.1064646859169009
leaf_weight=25 28 21 23 23 23 31 22 27 36 22 20 70 106 22 644 21 87 23 20 24 1669 143 46 24 60 24 38 25 404 50
leaf_count=25 28 21 23 23 23 31 22 27 36 22 20 70 106 22 644 21 87 23 20 24 1669 143 46 24 60 24 38 25 404 50
internal_value=0 -0.188838 -0.0295198 -0.169271 -0.0623221 -0.1528 -0.039502 6.72245 -0.131565 -0.0581134 -0.116787 -0.0603867 0.25289 -1.27926 -1.04846 2.94418 0.367111 0.481517 6.36419 0.384001 0.325655 -1.71328 0.526064 1.60981 4.60966 8.05059 0.888963 5.3245 0.447213 0.0447536
internal_weight=0 3773 3748 3725 3702 3679 3648 49 3599 3578 3556 3536 2813 723 701 57 2743 2637 43 2594 2570 230 2340 671 130 70 541 49 492 454
internal_count=3801 3773 3748 3725 3702 3679 3648 49 3599 3578 3556 3536 2813 723 701 57 2743 2637 43 2594 2570 230 2340 671 130 70 541 49 492 454
is_linear=0
shrinkage=0.1


Tree=51
num_leaves=31
num_cat=0
split_feature=102 19 105 55 32 51 79 32 122 15 104 77 150 20 154 7 149 146 49 63 155 50 31 17 113 34 1 129 39 7
split_gain=1.95218e+06 615368 4.31176e+06 1.98776e+06 764491 210251 294365 219731 157331 131371 90056.3 214255 197541 89203.9 80213.1 129754 150070 144068 109626 100478 98698 89745.1 86141.9 114018 112362 107789 91652 80209.1 97657.6 88299.9
threshold=0.96360172574030878 55.39028203547133 0.62250000000000016 8.4759599272052202e-11 1.4966054570011099e-18 1.5066989932774682e-14 0.81239537499344661 4.9539316734912194e-19 0.64672276221144298 48.605134090611507 0.47747713915657558 1.7912689822415884 0.59416666666666684 3.8612092849478063e-11 0.98515379405348591 5.6641081765973873e-08 -0.16362386218329503 0.25104666814572757 2.8101592915852904e-11 0.97271973505169673 0.15569595606646858 3.2007789907279579e-11 2.461040672535599e-18 53.772532071295792 -0.0011882990987163633 2.9440338166785522e-19 1035168754.148191 0.16333621308031557 5.1900063484912782e-15 4.7991021445012872e-08
decision_type=2 2 2 2 2 2 2 2 2 2 2 2 2 2 2 2 2 2 2 2 2 2 2 2 2 2 2 2 2 2
left_child=1 3 -3 4 5 7 -7 8 9 10 11 14 -12 -14 15 19 -17 -18 20 21 -16 22 23 -1 26 -26 -24 29 -29 -11
right_child=-2 2 -4 -5 -6 6 -8 -9 -10 27 12 -13 13 -15 18 16 17 -19 -20 -21 -22 -23 24 -25 25 -27 -28 28 -30 -31
leaf_value=-0.49471991831107198 26.307247556958881 -47.63660614013672 10.878711554583383 30.637799267541794 -19.713713969588284 -0.19847718436142495 15.347548264548891 -9.185850846325911 -7.735766908857558 0.51777719020843505 8.0227661761908973 -10.456126451390711 -5.6829128563404083 1.3103434067023429 0.3046930322592909 -3.9593959552901135 -1.3393214674293996 8.8269381792648982 -9.6330805319547661 -7.112094863601353 -5.2590539503097533 -6.6757457525833805 3.8854024831544276 -7.164470353493325 10.688828251578592 2.1478744102848899 -2.6200757704438673 0.81872526246551303 -4.8755362018462156 9.9145801746845255
leaf_weight=1803 28 20 34 21 20 29 21 27 27 20 39 22 24 76 88 21 20 46 20 23 50 23 33 26 22 45 63 1059 31 20
leaf_count=1803 28 20 34 21 20 29 21 27 27 20 39 22 24 76 88 21 20 46 20 23 50 23 33 26 22 45 63 1059 31 20
internal_value=0 -0.19523 -10.7936 -0.041341 -0.21556 -0.109534 6.33085 -0.198294 -0.130906 -0.0734543 -0.485704 -0.63477 1.98622 -0.368038 -0.540127 -0.378498 3.40351 5.74625 -2.71393 -0.539948 -1.71116 -0.464931 -0.39322 -0.589533 1.80958 4.95237 -0.383818 0.818173 0.656778 5.21618
internal_weight=0 3773 54 3719 3698 3678 50 3628 3601 3574 2444 2305 139 100 2283 2125 87 66 158 2038 138 2015 1992 1829 163 67 96 1130 1090 40
internal_count=3801 3773 54 3719 3698 3678 50 3628 3601 3574 2444 2305 139 100 2283 2125 87 66 158 2038 138 2015 1992 1829 163 67 96 1130 1090 40
is_linear=0
shrinkage=0.1


Tree=52
num_leaves=31
num_cat=0
split_feature=86 82 9 95 7 40 37 119 141 26 38 155 50 9 26 78 4 96 118 70 26 104 55 126 72 81 125 39 40 126
split_gain=1.88928e+06 1.01876e+06 1.08915e+06 4.16459e+06 359013 176823 227134 306682 129163 117555 135322 95673.7 138825 189154 107706 141440 102831 92392 125893 121103 127286 91015.2 91118 86905.2 127239 117926 102742 109139 139952 101975
threshold=95.500000000000014 0.95805255569186987 1.2819876873269997e-06 0.023638912361439245 8.4081122411966441e-08 1.6205176768640348e-14 2.1612055743572411e-14 21622.000000000004 0.52326077783167746 7.0362102304163683 3.6587994521367145e-15 0.064037404884923058 1.9104961398340749e-11 4.6407727685696131e-07 7.0503443406411703 0.09365790999435418 1.6957288288595648e-13 0.060639334781405742 0.41986975460468207 380.50000000000006 6.3662120147748196 0.13875729991252203 5.8699566917976147e-12 0.32206623075200264 0.91597882648240492 0.63398053424836365 0.40677103521020658 3.195771619974265e-15 5.3660637101597668e-15 0.14997023463248749
decision_type=2 2 2 2 2 2 2 2 2 2 2 2 2 2 2 2 2 2 2 2 2 2 2 2 2 2 2 2 2 2
left_child=-1 2 4 -4 5 6 8 -8 9 17 11 12 -11 -14 15 16 -13 18 -2 -20 -21 -16 -23 24 25 -19 27 28 -25 -26
right_child=1 -3 3 -5 -6 -7 7 -9 -10 10 -12 14 13 -15 21 -17 -18 23 19 20 -22 22 -24 26 29 -27 -28 -29 -30 -31
leaf_value=25.879948871476309 -0.84091404234244438 -19.547132040836193 49.289549319744111 -12.496698204676312 -10.17606127311786 -7.6613324903672755 14.465839931488038 -0.90487722467493126 -7.6417071558859035 1.1927271982545362 -5.8245485760948874 1.8287462421825955 14.447465934753419 2.536748837828636 0.96337868989513231 -1.5639922945035829 10.012239778743073 1.3413625661778603 -2.1165277419307014 -2.5382819636301566 -12.87333100942465 -7.0152383514072589 -0.60274054876931338 0.79739701498604421 2.6408027721196414 -1.6991550606316057 6.371306475471048 -3.5337721255090502 9.4216140508651733 -5.2454934297027167
leaf_weight=28 754 27 20 24 36 31 25 27 23 272 33 28 20 40 507 36 34 271 110 22 26 23 606 318 20 241 34 54 20 91
leaf_count=28 754 27 20 24 36 31 25 27 23 272 33 28 20 40 507 36 34 271 110 22 26 23 606 318 20 241 34 54 20 91
internal_value=0 -0.192059 -0.0525536 15.588 -0.238448 -0.140861 -0.0767254 6.48489 -0.171954 -0.123694 0.512677 0.64622 2.15314 6.50699 0.240793 3.42161 6.31647 -0.642591 -1.37875 -3.94536 -8.13643 -0.0336076 -0.83722 -0.00257932 -0.755234 -0.0898186 1.09813 0.640767 1.30771 -3.82454
internal_weight=0 3773 3746 44 3702 3666 3635 52 3583 3560 1599 1566 332 60 1234 98 62 1961 912 158 48 1136 629 1049 623 512 426 392 338 111
internal_count=3801 3773 3746 44 3702 3666 3635 52 3583 3560 1599 1566 332 60 1234 98 62 1961 912 158 48 1136 629 1049 623 512 426 392 338 111
is_linear=0
shrinkage=0.1


Tree=53
num_leaves=31
num_cat=0
split_feature=79 55 55 1 3 63 142 145 37 137 55 52 127 35 125 43 130 96 124 77 7 94 147 155 101 21 98 127 89 10
split_gain=1.8068e+06 480490 1.42687e+06 654584 351557 257527 192156 139800 166058 308223 119035 110977 128569 93660.9 162674 141067 90449.8 114175 156993 147928 134811 118948 88520.5 95454.2 107233 114436 71736.2 68055.4 99989.4 74197.7
threshold=0.95861165551361127 2.9597232052578372e-10 1.2729004642620481e-10 331270956.60763186 0.96099288978915942 0.97542750338497342 0.53067175836813274 0.1125 2.3189468611065962e-14 31.223110930492275 1.5020688263687301e-11 8.2349127907060903e-12 288.50000000000006 1.1523808889082722e-14 0.55939694008017715 9.6654650346169003e-13 0.51970307068383614 0.20081274443734112 0.16825598400821759 1.7912689822415884 2.9687700371748197e-08 -0.098827889790397097 0.039501000221656514 0.19635687089682882 -0.16041009357819383 1.8886169518986631e-09 1.0198801845802661 252.50000000000003 21.241614452438164 3.8699211009369637e-10
decision_type=2 2 2 2 2 2 2 2 2 2 2 2 2 2 2 2 2 2 2 2 2 2 2 2 2 2 2 2 2 2
left_child=1 2 3 -1 5 6 7 8 11 -10 -11 13 -13 14 16 -15 17 18 19 27 -20 -19 -17 24 -24 -26 -14 28 -5 -29
right_child=-2 -3 -4 4 -6 -7 -8 -9 9 10 -12 12 26 15 -16 22 -18 21 20 -21 -22 -23 23 -25 25 -27 -28 29 -30 -31
leaf_value=-16.055216769071727 25.308725374085565 -13.238871376855034 24.740586805343629 -0.58516665337941587 12.769367358798073 -11.522660570144653 -8.7104928300930915 -6.3723695945739749 14.957006356829689 5.0831471235855767 -5.4653829360008244 -10.653017615136648 -5.0977196910164579 7.6253512093515115 -9.0037271885644827 4.9985095967186828 6.5308419740200039 -10.963744006156922 11.871937211155892 -8.7985472768545154 0.52808151881803167 -0.61709190416336068 -4.4921004118288268 -4.8316234082886673 2.025745113103679 -5.4810029571706602 3.0734145534890041 -0.42040005872918124 2.9727699595317247 3.1973297735740402
leaf_weight=26 28 28 23 156 21 20 26 35 21 23 20 21 22 33 21 45 20 20 20 20 22 25 34 33 264 22 21 2513 160 58
leaf_count=26 28 28 23 156 21 20 26 35 21 23 20 21 22 33 21 45 20 20 20 20 22 25 34 33 264 22 21 2513 160 58
internal_value=0 -0.18782 -0.0902419 -0.243683 -0.132455 -0.20618 -0.144256 -0.0828836 -0.0216337 5.02659 0.176854 -0.11316 -4.2394 -0.0369682 -0.232864 1.34248 -0.171753 -0.216526 -0.140243 -0.227944 5.92992 -5.2156 0.821539 0.289064 0.817135 1.4483 -1.10717 -0.16857 1.21632 -0.338787
internal_weight=0 3773 3745 3722 3696 3675 3655 3629 3594 64 43 3530 64 3466 3035 431 3014 2994 2949 2907 42 45 398 353 320 286 43 2887 316 2571
internal_count=3801 3773 3745 3722 3696 3675 3655 3629 3594 64 43 3530 64 3466 3035 431 3014 2994 2949 2907 42 45 398 353 320 286 43 2887 316 2571
is_linear=0
shrinkage=0.1


Tree=54
num_leaves=31
num_cat=0
split_feature=77 107 4 63 102 69 18 63 51 49 78 38 3 50 141 60 132 150 84 107 133 125 146 108 110 7 6 71 90 23
split_gain=1.7805e+06 1.18788e+06 1.254e+06 966689 512839 392348 473912 165878 209236 220796 196161 174614 227512 125532 90675.4 83558.4 70125 84031 145573 148584 133608 101969 93458.1 147024 167291 137438 114775 110154 112032 103877
threshold=1.7912689822415884 0.68129494175644845 4.4293797039590529e-12 0.91726836470787476 0.96360172574030878 132.50000000000003 50.513035551052603 0.97271973505169673 1.5066989932774682e-14 1.527258159384386e-10 0.22421245397452863 4.6166007524598237e-15 0.95817678973887288 4.0518058600333699e-11 0.52326077783167746 0.96460308894565694 0.5475000000000001 0.66583333333333339 1.1485706074688082 0.3367207975857533 0.23922478851051776 0.30023382229219936 0.25051789997346546 0.13811724718573823 0.16272162003340793 5.6641081765973873e-08 1.189505969099524e-07 0.93698085584440183 0.88264336164794921 7.3557810041634024
decision_type=2 2 2 2 2 2 2 2 2 2 2 2 2 2 2 2 2 2 2 2 2 2 2 2 2 2 2 2 2 2
left_child=1 2 4 -3 5 -1 7 8 10 -10 11 12 13 14 15 16 -7 22 19 21 -21 -19 23 27 -25 -24 -27 28 -18 -28
right_child=-2 3 -4 -5 -6 6 -8 -9 9 -11 -12 -13 -14 -15 -16 -17 17 18 -20 20 -22 -23 25 24 -26 26 29 -29 -30 -31
leaf_value=13.257180270281706 25.123860787493843 -1.781858981847763 23.801455762169581 -32.873486862182624 -16.113789806365968 -2.1630468168527099 -12.654340585072836 -7.0916506030342807 -0.20676182702183726 14.652451896667481 -8.7043668838647701 -9.0780753731727604 9.3874937222554138 5.8729241329762676 -6.3207628125729771 -5.9007627102235958 6.6265891736951374 -3.1713679238116925 0.38430250270957766 -3.0858402988006333 -11.055967810659698 1.668014600910718 -0.53163283110044612 13.072516573610763 0.29333131968975068 8.9753635764122013 5.8713593730220097 3.8485048634544863 0.33511964659695159 -2.3340029372109306
leaf_weight=22 28 20 22 20 20 141 30 33 20 20 26 21 26 36 23 24 29 97 361 58 33 79 1197 21 20 27 27 106 1178 36
leaf_count=22 28 20 22 20 20 141 30 33 20 20 26 21 26 36 23 24 29 97 361 58 33 79 1197 21 20 27 27 106 1178 36
internal_value=0 -0.186448 -0.00277558 -17.3277 -0.143895 -0.0573605 -0.137197 -0.0340053 0.0305822 7.22285 -0.0500938 0.0134686 0.0677234 -0.00164794 -0.0628237 -0.0209097 0.0204734 0.114654 -0.925067 -2.69541 -5.97611 -0.999145 0.361888 0.941856 6.83877 -0.248273 3.52042 0.757718 0.486282 1.18258
internal_weight=0 3773 3733 40 3711 3691 3669 3639 3606 40 3566 3540 3519 3493 3457 3434 3410 3269 628 267 91 176 2641 1354 41 1287 90 1313 1207 63
internal_count=3801 3773 3733 40 3711 3691 3669 3639 3606 40 3566 3540 3519 3493 3457 3434 3410 3269 628 267 91 176 2641 1354 41 1287 90 1313 1207 63
is_linear=0
shrinkage=0.1


Tree=55
num_leaves=31
num_cat=0
split_feature=63 9 7 57 31 22 39 79 72 49 94 77 141 151 26 26 75 147 117 137 97 95 82 143 90 85 140 26 131 98
split_gain=1.8678e+06 1.9576e+06 2.26845e+06 218659 253319 152942 302797 145886 97484.7 91424.7 193290 121975 84347.9 81446.4 77185.4 76381.8 117151 89211.9 97725.7 83031.3 81984.4 80438.9 72394.5 103172 95509.5 85279.8 77413.5 81027.2 84658.3 73297.2
threshold=0.97542750338497342 1.5009905981204954e-06 1.0708400422864955e-07 1.855766096280437e-19 9.0626183013730478e-18 7.5178469585921919 5.8539702257980605e-15 0.95461720280901574 0.92042814341396229 1.4045563780849306e-10 -0.17125739047270949 1.7912689822415884 0.52326077783167746 271.50000000000006 7.0362102304163683 7.0503443406411703 1.7847816522253646 0.18361498920529865 0.066333518842312797 34.751846890745803 5.7791257218967802 -0.13154805876968026 0.07654918443566823 1.0322684161680458 0.97109745756490895 3.1121363115236944 -0.40438357016926235 7.1891039208335439 -0.070968864938415019 1.013277069688453
decision_type=2 2 2 2 2 2 2 2 2 2 2 2 2 2 2 2 2 2 2 2 2 2 2 2 2 2 2 2 2 2
left_child=1 2 3 4 5 7 8 9 -7 11 -11 12 14 -12 -1 16 -16 18 -17 -20 21 -19 23 29 25 -24 -26 28 -28 -22
right_child=-2 -3 -4 -5 -6 6 -8 -9 -10 10 13 -13 -14 -15 15 17 -18 20 19 -21 22 -23 24 -25 26 -27 27 -29 -30 -31
leaf_value=-0.43426200505365586 25.732403525284361 -23.079649450972276 29.470524280346361 -8.0372386278424948 8.7628494277596474 4.444398857788606 -14.84602508544922 -8.3923957143511085 -4.4509458771773742 -4.2546233129501347 3.3869709060305642 -7.2044998168945318 -5.9586057583491012 12.303652329444887 1.4941899116694308 4.8548466597284587 9.7397692703065424 -6.3211052356660371 -0.90598256892103068 -7.0885499881661467 8.4724033987643761 0.16298571010025181 4.6111439393914271 0.54975298751484269 7.9165969084609644 -2.0229725062604844 -1.3937093529981726 6.7205791779926844 2.8337939908571332 1.5243457983840596
leaf_weight=1908 28 37 26 35 32 22 21 21 28 20 21 24 24 20 96 28 21 20 391 23 49 441 23 55 22 123 85 28 107 22
leaf_count=1908 28 37 26 35 32 22 21 21 28 20 21 24 24 20 96 28 21 20 391 23 49 441 23 55 22 123 85 28 107 22
internal_value=0 -0.190964 0.0357173 -0.170564 -0.0956437 -0.173456 -4.76924 -0.0821068 -0.536994 -0.0329612 3.80503 -0.100044 -0.0508494 7.73657 -0.00965647 0.518471 2.97417 0.315707 -0.86276 -1.24946 0.849946 -0.11832 1.71837 3.80095 1.04207 -0.977872 2.26071 1.69512 0.962243 6.31948
internal_weight=0 3773 3736 3710 3675 3643 71 3572 50 3551 61 3490 3466 41 3442 1534 117 1417 442 414 975 461 514 126 388 146 242 220 192 71
internal_count=3801 3773 3736 3710 3675 3643 71 3572 50 3551 61 3490 3466 41 3442 1534 117 1417 442 414 975 461 514 126 388 146 242 220 192 71
is_linear=0
shrinkage=0.1


Tree=56
num_leaves=31
num_cat=0
split_feature=86 82 9 80 59 77 40 8 40 9 103 115 92 90 129 120 141 44 140 88 96 104 37 145 29 143 57 134 63 98
split_gain=1.75325e+06 962228 934356 3.41869e+06 370102 115327 104419 133354 176669 163213 82138.9 78781.1 115624 76641.9 82974.5 97122.9 95597.5 115342 95887.4 97036.4 88211.9 79659.5 78669.8 77547.8 76870.7 86193.8 171289 135297 103494 128932
threshold=95.500000000000014 0.95805255569186987 1.2819876873269997e-06 0.036690043881792277 4.6535552796308069e-19 1.7912689822415884 1.6205176768640348e-14 0.95485522631218556 1.0947418869287117e-14 6.5576905948869103e-07 0.072500000000000023 248.50000000000003 4.5783643702784937 0.88264336164794921 0.19036641262472648 0.054166666666666675 0.18399731634971275 8.6893298462444736e-14 -0.090686190430288457 104.15704851308421 -0.032055601013500627 0.1506165878182068 4.7802264517217268e-16 0.022500000000000003 5.2752307662841233e-19 1.0473360923466666 5.1096523511315808e-20 2.320126602448481 0.59259278969248619 1.0152850908324547
decision_type=2 2 2 2 2 2 2 2 2 2 2 2 2 2 2 2 2 2 2 2 2 2 2 2 2 2 2 2 2 2
left_child=-1 2 4 -4 5 6 7 9 -9 10 -2 12 -12 -13 15 24 18 -18 -16 23 -19 -22 -21 -20 25 27 -27 28 -15 -30
right_child=1 -3 3 -5 -6 -7 -8 8 -10 -11 11 13 -14 14 16 -17 17 20 19 22 21 -23 -24 -25 -26 26 -28 -29 29 -31
leaf_value=24.930860768045701 -2.3033399409191175 -18.995400091453835 39.882698265711468 -16.097637958526612 -12.11056050520677 -6.9063549594879152 -5.7784344822168352 0.15394602808459054 12.370938617736101 -6.9072280808857514 1.061567374255306 5.7046601590902917 8.4920897831916804 0.15677168634964894 -0.12223605450411189 -1.4678736321199821 7.1167906354774138 2.3131370857223734 5.5776867915689952 -0.40290709112552892 0.92293628331835709 -1.6756309950778079 -5.01940914541483 -1.9878692235265458 6.2970346492269762 -0.040830102669201909 -8.6206028858820609 3.8876964734615509 0.025262376417716344 6.554037646778295
leaf_weight=28 154 27 24 20 26 25 32 29 20 35 129 23 25 723 188 274 22 111 20 47 179 346 172 42 23 764 24 148 60 61
leaf_count=28 154 27 24 20 26 25 32 29 20 35 129 23 25 723 188 274 22 111 20 47 179 346 172 42 23 764 24 148 60 61
internal_value=0 -0.185016 -0.0494363 14.4371 -0.221615 -0.137526 -0.0911769 -0.0408889 5.14047 -0.112006 -0.0447262 0.0581506 2.26782 -0.0473001 -0.0885907 0.28627 -0.779439 -0.00187708 -1.87035 -3.0399 -0.24812 -0.789643 -4.02865 0.452633 0.552845 0.478623 -0.302143 1.09883 0.609784 3.31663
internal_weight=0 3773 3746 44 3702 3676 3651 3619 49 3570 3535 3381 154 3227 3204 2077 1127 658 469 281 636 525 219 62 1803 1780 788 992 844 121
internal_count=3801 3773 3746 44 3702 3676 3651 3619 49 3570 3535 3381 154 3227 3204 2077 1127 658 469 281 636 525 219 62 1803 1780 788 992 844 121
is_linear=0
shrinkage=0.1


Tree=57
num_leaves=31
num_cat=0
split_feature=79 19 73 17 34 4 98 32 77 67 64 140 79 130 71 47 85 98 63 151 108 98 90 71 72 94 97 97 142 81
split_gain=1.75519e+06 507405 3.29964e+06 2.0326e+06 691288 119537 391441 283756 75232.7 165799 134809 98112.2 82414.4 198753 85324.9 83449.4 70964.5 56832.6 88156.3 72669.2 70603.3 64269.8 166975 59208.9 57812.8 60574.3 84078.1 65949.9 81596.1 59856.3
threshold=0.95861165551361127 55.39028203547133 89.500000000000014 56.839634292065242 7.0840329003506015e-18 2.0727111015270988e-12 1.016747012979722 5.3257615193836931e-19 1.7903707738274866 0.91658447481440819 0.87740038617559157 0.082408188089052828 0.87602672546129656 0.36658954749663974 0.94355637073608511 3.0848181606538255e-11 2.7638564927124061 1.3759533466950136 0.97271973505169673 270.50000000000006 0.079683514368946676 1.2521555301354226 0.96966860777352115 0.95496956148419754 0.96093584820484257 -0.24400091960630424 5.8624442967929928 5.9182156213854329 0.089946158526265557 0.60828383148056642
decision_type=2 2 2 2 2 2 2 2 2 2 2 2 2 2 2 2 2 2 2 2 2 2 2 2 2 2 2 2 2 2
left_child=1 3 -3 4 5 7 -7 8 12 11 -11 -10 15 14 -14 16 -1 18 21 20 -19 23 -23 24 25 26 -18 29 -29 -27
right_child=-2 2 -4 -5 -6 6 -8 -9 9 10 -12 -13 13 -15 -16 -17 17 19 -20 -21 -22 22 -24 -25 -26 27 -28 28 -30 -31
leaf_value=-3.3682212615013123 24.944689895425526 20.278524547273463 -29.718724909695716 28.963685828447343 -18.324337110065279 -4.0295356663790614 15.300436931848527 -10.807456249237061 -2.0921912285927182 9.4627712982892991 -2.1479455184936525 -7.9792907445054313 -1.7855292291902913 -9.172828966198546 5.1067320543786758 4.9480940394742152 -0.25906007917303792 -2.1374837875366213 -5.6025309874461255 -3.3570260833948851 5.7277532749232796 9.2281472765441457 -0.69483231091222108 -4.3224767043672756 5.1062221884727483 0.54246932359029854 -8.26935920715332 0.50936021038020651 7.0911929636232323 -0.40947594900736473
leaf_weight=60 28 22 33 24 21 22 20 25 111 20 20 38 82 33 23 35 38 25 26 99 21 28 43 29 24 1651 20 48 31 1101
leaf_count=60 28 22 33 24 21 22 20 25 111 20 20 38 82 33 23 35 38 25 26 99 21 28 43 29 24 1651 20 48 31 1101
internal_value=0 -0.185118 -9.71983 -0.0440723 -0.232536 -0.129098 5.17521 -0.190454 -0.116847 -2.05899 3.65741 -3.5936 -0.00942379 -2.40335 -0.275796 0.0913269 0.0389265 0.103132 0.195416 -1.83103 1.45317 0.245449 3.21846 0.1737 0.218461 0.177857 -3.02123 0.243398 3.0921 0.161622
internal_weight=0 3773 55 3718 3694 3673 42 3631 3606 189 40 149 3417 138 105 3279 3244 3184 3039 145 46 3013 71 2942 2913 2889 58 2831 79 2752
internal_count=3801 3773 55 3718 3694 3673 42 3631 3606 189 40 149 3417 138 105 3279 3244 3184 3039 145 46 3013 71 2942 2913 2889 58 2831 79 2752
is_linear=0
shrinkage=0.1


Tree=58
num_leaves=31
num_cat=0
split_feature=141 9 148 29 100 63 59 124 145 71 37 97 119 110 110 83 60 71 46 38 56 97 104 65 77 56 59 134 68 38
split_gain=1.70327e+06 1.20753e+06 4.83836e+06 2.03568e+06 349875 247891 228100 184666 90687.6 83022.3 108760 291532 213741 79426.6 78658.6 68850.7 127392 69008.6 62220.5 105042 57277.5 56590.1 62950.3 191312 85142.9 73693.7 71986.2 64561.6 62718.1 68207.7
threshold=0.52326077783167746 1.5009905981204954e-06 0.0025631101276689231 2.09586487511936e-18 0.95765642053760847 0.97542750338497342 4.6535552796308069e-19 0.064100927975190569 0.1125 0.95509589452592547 2.1612055743572411e-14 5.8719990266206663 21912.000000000004 -0.1214456764362009 -0.13501328927405759 0.090374258791012518 0.92657691777598405 0.73269702454992502 1.2667938798435602e-13 9.9657683741338479e-17 0.16626811728488713 5.1567932981747271 0.44653722688233694 0.75484197436836287 1.7900523976448304 0.96140116829902944 5.7130577486754432e-21 2.0923608077625651 188.50000000000003 3.4640209025118113e-15
decision_type=2 2 2 2 2 2 2 2 2 2 2 2 2 2 2 2 2 2 2 2 2 2 2 2 2 2 2 2 2 2
left_child=1 3 -3 4 5 6 8 -6 9 10 13 12 -12 14 15 18 17 -17 19 -1 -20 -15 24 27 25 28 -26 -24 -23 -30
right_child=-2 2 -4 -5 7 -7 -8 -9 -10 -11 11 -13 -14 21 -16 16 -18 -19 20 -21 -22 22 23 -25 26 -27 -28 -29 29 -31
leaf_value=6.6221540732817221 24.572917659793582 16.274104236421131 -52.451189594268797 31.052190231141591 -2.6149709199156081 -10.90028360911778 10.14738822579384 -15.876661863781159 -5.0599652383062583 -5.0084951523578525 15.08460560242335 -5.2304904118828155 1.4385969869115138 -2.9538352265440189 -6.3081356833721038 4.4307684805082239 8.411694152355194 -1.8405351130694556 0.42044470220241908 -1.5537090435895053 -3.3016171284178473 5.7025085698990594 5.6405289858579639 10.318946464856467 -1.1996810095177757 -4.2958798262808058 -7.0869563685523138 -0.088123123873682596 0.29602949895646546 -3.0348147419754361
leaf_weight=22 28 21 20 21 21 21 22 21 36 33 24 23 22 58 29 23 20 74 53 55 188 21 23 24 90 36 27 136 2546 63
leaf_count=22 28 21 20 21 21 21 22 21 36 33 24 23 22 58 29 23 20 74 53 55 188 21 23 24 90 36 27 136 2546 63
internal_value=0 -0.182359 -17.2504 0.00515164 -0.170539 -0.0666519 -0.00428723 -9.24582 -0.0658804 -0.0158005 0.0305192 3.96201 8.55825 -0.0472539 -1.26548 -0.929299 1.1448 -0.353525 -1.69241 0.782252 -2.48307 0.139669 0.200162 1.99673 0.0820265 0.197899 -2.55828 0.74055 0.259411 0.215599
internal_weight=0 3773 41 3732 3711 3669 3648 42 3626 3590 3557 69 46 3488 464 435 117 97 318 77 241 3024 2966 183 2783 2666 117 159 2630 2609
internal_count=3801 3773 41 3732 3711 3669 3648 42 3626 3590 3557 69 46 3488 464 435 117 97 318 77 241 3024 2966 183 2783 2666 117 159 2630 2609
is_linear=0
shrinkage=0.1


Tree=59
num_leaves=31
num_cat=0
split_feature=102 19 105 49 1 4 3 91 141 60 77 125 130 78 120 94 46 41 80 23 18 86 30 61 150 109 124 34 136 41
split_gain=1.86935e+06 560045 3.17005e+06 1.46871e+06 434397 937634 203884 184843 138228 105223 72584.6 64758.2 90864.3 96096.7 62517.7 83936.8 78336.1 184121 164644 115151 113531 103093 100208 92277.9 107057 89561.1 80735.1 111907 86572.7 80464.1
threshold=0.96360172574030878 55.39028203547133 0.62250000000000016 3.1976328952104119e-10 489780675.08856577 1.485961822084324e-12 0.95817678973887288 3.1348631522387755 0.52326077783167746 0.96460308894565694 1.7912689822415884 0.55939694008017715 0.51970307068383614 0.22421245397452863 0.054166666666666675 -0.035950737527756911 8.4963996126523129e-12 4.3114891831638232e-15 0.035920611048953811 7.3129141428315743 45.313970419813636 230.50000000000003 6.4925107637543623e-19 0.86307513510483125 0.61583333333333345 11182.000000000002 0.10281595038044709 1.5672129461890358e-19 2.3958240049146799 4.6301426458903631e-15
decision_type=2 2 2 2 2 2 2 2 2 2 2 2 2 2 2 2 2 2 2 2 2 2 2 2 2 2 2 2 2 2
left_child=1 3 -3 4 5 7 8 -1 9 10 11 12 13 14 16 -16 -6 18 -18 20 -19 -22 23 24 -21 -23 27 -20 -29 -25
right_child=-2 2 -4 -5 6 -7 -8 -9 -10 -11 -12 -13 -14 -15 15 -17 17 19 26 22 21 25 -24 29 -26 -27 -28 28 -30 -31
leaf_value=-6.3911543446779255 25.743090285573686 -41.892599296569827 8.2810008988660933 24.112190477371215 -0.017254597162899784 -25.687379582722983 9.3181157817011293 7.2045366501808168 -7.6908615715801716 -6.4148907441359304 -5.294421833753586 -5.1681585717946295 6.6022317134198687 -6.9072252851724629 -1.6857788806984211 0.5850035373219904 -3.4280382478237152 4.4353683948516851 2.5088845257759096 2.6627375173568728 -9.2276382426420849 -5.2486963975429539 8.0688137871878478 -4.1046288923783738 -6.7825666205088302 1.2545919036865234 0.875911602973938 7.2920614227171869 15.607815192994616 2.2141730487346649
leaf_weight=20 28 20 34 25 2201 21 23 20 24 26 26 24 21 20 422 265 20 22 25 20 24 40 21 22 30 45 20 31 21 240
leaf_count=20 28 20 34 25 2201 21 23 20 24 26 26 24 21 20 422 265 20 22 25 20 24 40 21 22 30 45 20 31 21 240
internal_value=0 -0.191043 -10.3018 -0.0442346 -0.207719 -8.57651 -0.0672023 0.406691 -0.126998 -0.0763753 -0.0300828 0.00864747 0.0440444 0.00457125 0.0444202 -0.809858 0.25538 1.2882 4.83331 0.39428 -2.11738 -3.43995 1.38235 0.9323 -3.00444 -1.80578 6.53668 8.00701 10.6503 1.68359
internal_weight=0 3773 54 3719 3694 61 3633 40 3610 3586 3560 3534 3510 3489 3469 687 2782 581 117 464 131 109 333 312 50 85 97 77 52 262
internal_count=3801 3773 54 3719 3694 61 3633 40 3610 3586 3560 3534 3510 3489 3469 687 2782 581 117 464 131 109 333 312 50 85 97 77 52 262
is_linear=0
shrinkage=0.1


Tree=60
num_leaves=31
num_cat=0
split_feature=63 9 7 4 145 42 30 118 141 78 79 154 9 7 7 22 15 73 153 104 150 17 1 146 20 98 2 76 108 102
split_gain=1.72979e+06 1.51811e+06 1.23457e+06 243652 217288 249491 172834 281490 157157 119107 114991 74201.8 183259 166356 75671.6 67311.6 64678.5 110260 88488.1 71816.3 185090 66953.3 66779.6 83113.1 138873 75985.8 72595.8 63963.7 108861 72327.5
threshold=0.97542750338497342 1.8335700910234837e-06 1.2352610546584618e-07 2.9022980504961621e-12 0.0041666666666666675 2.8154388843099523e-12 9.8169895334399528e-19 0.41634301947540825 0.52326077783167746 0.22421245397452863 0.95461720280901574 0.98646556247006256 6.415671794147702e-07 6.3720822947021052e-08 5.0879978133937557e-08 7.5455877740819579 48.605134090611507 98.500000000000014 34.716897320863957 0.47747713915657558 0.59750000000000014 53.882636425677454 1044590560.0333881 0.26092013898772354 8.6233526723139026e-11 1.0644870793568773 1.3740702459923379e-06 0.57250000000000012 0.15896430601449749 -0.42657065580707659
decision_type=2 2 2 2 2 2 2 2 2 2 2 2 2 2 2 2 2 2 2 2 2 2 2 2 2 2 2 2 2 2
left_child=1 2 3 4 -1 6 8 -8 9 10 11 12 15 14 -13 16 19 -18 -19 21 -21 22 23 25 -25 -6 27 28 29 -24
right_child=-2 -3 -4 -5 5 -7 7 -9 -10 -11 -12 13 -14 -15 -16 -17 17 18 -20 20 -22 -23 26 24 -26 -27 -28 -29 -30 -31
leaf_value=9.1776937699317926 24.763537710905076 -24.744286369323731 21.286241630271633 -10.91559585389637 1.4696634389535346 -9.7541242617147947 -2.0848224219821749 14.101376925815238 -7.927633142471314 -6.0153729565003342 -7.4462139878954208 -1.9410443133321302 9.4002850396292548 -10.547220132350922 3.239610896110535 -5.6145149458022345 0.15981913003968051 1.8597856515674918 7.5904132512307942 8.6505797609686859 -0.20414405484994252 -4.5934675316754223 -3.963633760313193 10.437080213179192 0.72064046922482949 -3.9511805146081111 -3.9376159040099483 -1.4085043470700893 6.6429248730341603 -0.010401400821946632
leaf_weight=25 28 25 27 21 99 27 21 22 26 34 21 145 21 20 35 21 818 206 31 32 90 37 48 24 38 35 59 449 24 1292
leaf_count=25 28 25 27 21 99 27 21 22 26 34 21 145 21 20 35 21 818 206 31 32 90 37 48 24 38 35 59 449 24 1292
internal_value=0 -0.183774 -0.0199498 -0.17455 -0.113587 -0.176793 -0.105908 6.19649 -0.181083 -0.124807 -0.0683108 -0.0243449 0.0882124 -1.89505 -0.933695 0.0290076 0.0651179 0.710095 2.60936 -0.240428 2.11841 -0.37714 -0.301703 1.45449 4.48184 0.0537714 -0.485577 -0.373238 -0.0324508 -0.15201
internal_weight=0 3773 3748 3721 3700 3675 3648 43 3605 3579 3545 3524 3324 200 180 3303 3282 1055 237 2227 122 2105 2068 196 62 134 1872 1813 1364 1340
internal_count=3801 3773 3748 3721 3700 3675 3648 43 3605 3579 3545 3524 3324 200 180 3303 3282 1055 237 2227 122 2105 2068 196 62 134 1872 1813 1364 1340
is_linear=0
shrinkage=0.1


Tree=61
num_leaves=31
num_cat=0
split_feature=77 107 4 54 102 63 58 57 20 99 38 78 10 141 60 118 86 113 38 138 119 3 90 84 35 103 115 146 39 148
split_gain=1.62957e+06 941065 1.20815e+06 713530 490095 322987 435060 420805 125310 140593 114213 98427.9 89896.7 76877.9 53905.3 84595.7 212274 68390.6 109154 92987.3 71097.7 53709.4 49633.7 73781.6 48775 48627.5 60930 87581.7 53282.6 52832.9
threshold=1.7912689822415884 0.68129494175644845 4.4293797039590529e-12 2.109898210520321e-13 0.96360172574030878 0.97542750338497342 1.0277689358348842e-18 2.5676879330353991e-19 1.0840117422477208e-10 0.084166666666666681 5.1698926055473657e-15 0.22421245397452863 7.7141158494721115e-10 0.52326077783167746 0.96314834340765099 0.50745739806718404 169.50000000000003 0.072478666546268694 2.3249056485233121e-15 0.24750000000000003 17083.500000000004 0.76350206229261441 0.88264336164794921 1.1568380465430603 5.2401229180018389e-15 0.072500000000000023 248.50000000000003 0.23719947949648737 1.3792658427506812e-15 0.57240687500474119
decision_type=2 2 2 2 2 2 2 2 2 2 2 2 2 2 2 2 2 2 2 2 2 2 2 2 2 2 2 2 2 2
left_child=1 2 4 -3 5 6 7 8 10 -10 11 12 13 14 15 17 -17 22 19 20 -19 -21 23 -1 -23 -24 27 -27 -29 -28
right_child=-2 3 -4 -5 -6 -7 -8 -9 9 -11 -12 -13 -14 -15 -16 16 -18 18 -20 21 -22 24 25 -25 -26 26 29 28 -30 -31
leaf_value=-0.4593300667676059 24.035435005596707 -2.0792435999587178 23.350066497109154 -28.791235628128049 -15.765151576995851 -12.149263646385887 14.712273494452241 -13.274805541833244 0.31291411187913687 11.222559601919992 -6.6614223576509035 -6.5299197842245524 5.0759526981626237 -5.7797740532004314 -4.064541153237224 -3.0934671288444884 10.544448772430421 0.11840823566591419 -8.7229586803913133 2.591131802614675 -5.4917459430365732 -5.1659391511570334 -1.8725435288577543 7.932805380821228 1.5717658786546618 0.23727021499683987 0.20152273254582143 8.6267829541806815 1.8168231773376466 -1.2632065766045879
leaf_weight=22 28 20 22 20 20 22 20 24 27 21 26 23 35 23 32 21 25 37 20 72 58 22 123 20 21 76 2602 27 20 272
leaf_count=22 28 20 22 20 20 22 20 24 27 21 26 23 35 23 32 21 25 37 20 72 58 22 123 20 21 76 2602 27 20 272
internal_value=0 -0.178371 -0.0148895 -15.4352 -0.153404 -0.0688109 0.00362571 -0.0769917 0.0103869 5.08588 -0.0577215 -0.00936999 0.0331393 -0.0173899 0.0208045 0.0588299 4.31844 0.00106388 -1.66383 -0.991535 -3.30674 0.921025 0.122166 3.53692 -1.87543 0.0761985 0.156177 2.33571 5.72893 0.0628984
internal_weight=0 3773 3733 40 3711 3691 3669 3649 3625 48 3577 3551 3528 3493 3470 3438 46 3392 230 210 95 115 3162 42 43 3120 2997 123 47 2874
internal_count=3801 3773 3733 40 3711 3691 3669 3649 3625 48 3577 3551 3528 3493 3470 3438 46 3392 230 210 95 115 3162 42 43 3120 2997 123 47 2874
is_linear=0
shrinkage=0.1


Tree=62
num_leaves=31
num_cat=0
split_feature=102 19 105 55 32 30 32 77 122 63 103 117 102 56 60 133 53 43 81 98 142 72 73 113 124 23 94 3 72 131
split_gain=1.71847e+06 554856 2.59757e+06 1.39407e+06 564789 150263 151725 136242 90074 58034.6 55884.3 94075.6 85474.8 73186.1 77285.8 58548.8 101694 94273.8 81328.7 161025 170897 80118.9 164834 106024 129781 85044.3 77643.5 68566.1 213499 90456.3
threshold=0.96360172574030878 55.39028203547133 0.63583333333333347 8.4759599272052202e-11 1.4966054570011099e-18 9.8169895334399528e-19 4.9539316734912194e-19 1.7912689822415884 0.64672276221144298 0.97271973505169673 0.19916666666666669 0.46959220576160149 0.69701622056489887 0.28024124579444615 0.75807229634273554 0.24429334172489789 1.8661647172266903e-11 3.1382228738966561e-12 0.60828383148056642 1.1017299245187535 0.091086246805537896 0.94305150575383012 113.50000000000001 0.051726237249780253 0.01780579545070855 7.3670827891755399 -0.09219885466313564 0.89509691703125904 0.69793484129033656 -0.21976635276058751
decision_type=2 2 2 2 2 2 2 2 2 2 2 2 2 2 2 2 2 2 2 2 2 2 2 2 2 2 2 2 2 2
left_child=1 3 -3 4 5 6 7 8 9 10 15 12 13 -12 -15 17 21 18 19 -1 -21 25 23 24 -23 27 -26 -17 29 -29
right_child=-2 2 -4 -5 -6 -7 -8 -9 -10 -11 11 -13 -14 14 -16 16 -18 -19 -20 20 -22 22 -24 -25 26 -27 -28 28 -30 -31
leaf_value=0.7369139835937677 24.682354967934746 -30.610745896964239 13.374949642181399 25.655299827030731 -16.942036180496217 7.965683696580971 -8.067401935656866 -7.1671992315186408 -5.7913157167258085 -4.2332063195761291 3.652809190916984 5.032004841238261 -4.1958603621801229 -4.4510010769492707 -0.42537188785125135 -0.63684016406236277 -5.8130627639365926 5.1309674046256326 -0.31464166178544867 12.635963292916616 1.3960819152093702 -5.2337051439285283 10.011170805584301 -6.05297949552536 1.4741302902698517 -6.7862119356791188 8.1288710121755248 -5.276960322062175 8.4394654471533652 1.9870733822882176
leaf_weight=959 28 29 25 21 20 23 24 27 27 32 36 25 82 57 292 907 33 44 790 24 31 20 22 20 50 21 27 30 35 40
leaf_count=959 28 29 25 21 20 23 24 27 27 32 36 25 82 57 292 907 33 44 790 24 31 20 22 20 50 21 27 30 35 40
internal_value=0 -0.183171 -10.247 -0.0370444 -0.182945 -0.0918131 -0.142517 -0.0901354 -0.0371163 0.00631765 0.044587 -0.944461 -1.2644 -0.640038 -1.08285 0.203975 -0.338342 0.557596 0.446051 1.0387 6.30076 -0.18419 2.06977 0.576516 1.94342 -0.487482 3.80761 -0.356777 2.06243 -1.12608
internal_weight=0 3773 54 3719 3698 3678 3655 3631 3604 3577 3545 492 467 385 349 3053 1205 1848 1804 1014 55 1172 139 117 97 1033 77 1012 105 70
internal_count=3801 3773 54 3719 3698 3678 3655 3631 3604 3577 3545 492 467 385 349 3053 1205 1848 1804 1014 55 1172 139 117 97 1033 77 1012 105 70
is_linear=0
shrinkage=0.1


Tree=63
num_leaves=31
num_cat=0
split_feature=86 82 4 63 50 1 86 77 28 127 49 102 103 154 31 9 72 6 32 73 150 66 65 25 90 63 63 39 6 146
split_gain=1.65361e+06 912375 860878 422653 393688 346502 190967 117655 118013 263478 90096.8 84716.1 60828.9 61202.9 99224.2 66134.3 64283.5 59671.5 58006.4 74202.3 57290.6 124116 85819.4 82512 81357.4 66226.9 69776.3 69592.4 59637.5 55335.7
threshold=95.500000000000014 0.95805255569186987 4.4293797039590529e-12 0.97542750338497342 7.9364054933937407e-11 331270956.60763186 148.50000000000003 1.7912689822415884 405.74696526941904 289.50000000000006 2.0084566682784704e-10 0.95975617813888892 0.072500000000000023 0.986959739839672 4.1840904242132014e-18 4.6407727685696131e-07 0.50915335893281921 6.8046786713421975e-08 2.9921098428890296e-19 95.500000000000014 0.66583333333333339 0.9085336009633489 0.3416635453507168 7.3229756710619913 0.8927479416180395 -0.032519025890682667 0.038562927819397803 4.1948610053577148e-15 1.0190139166564223e-07 0.25051789997346546
decision_type=2 2 2 2 2 2 2 2 2 2 2 2 2 2 2 2 2 2 2 2 2 2 2 2 2 2 2 2 2 2
left_child=-1 2 3 4 5 -2 -7 8 10 -10 11 12 -8 18 15 16 -15 -18 20 -20 23 22 -22 24 -14 28 -27 -28 -24 -26
right_child=1 -3 -4 -5 -6 6 7 -9 9 -11 -12 -13 13 14 -16 -17 17 -19 19 -21 21 -23 25 -25 29 26 27 -29 -30 -31
leaf_value=24.212068802118303 -9.920759999420909 -18.496295911294443 19.675682280280373 -13.391827015082042 13.258978933095932 9.4468777501866921 -1.952579798529807 -6.9532455940246578 -13.835557036399843 -0.2548848971128464 5.562330610998746 -6.3669434660956981 6.3341464530337941 1.2226801427205405 -8.1904153188069664 3.8438883552551268 -7.1212904847901441 -1.4194778027534485 0.69178758019056075 8.0647550900777176 -6.8844057095050815 -7.5473101725945106 0.31074650989424801 6.7277113437652591 0.6910723228412351 -4.8238543993069065 -0.56071695250439202 4.9933550834655769 7.1185271772471346 -0.24672513361945569
leaf_weight=28 36 27 22 24 22 21 152 25 20 50 29 21 22 45 21 25 29 50 39 21 20 26 31 20 1270 36 376 24 22 1247
leaf_count=28 36 27 22 24 22 21 152 25 20 50 29 21 22 45 21 25 29 50 39 21 20 26 31 20 1270 36 376 24 22 1247
internal_value=0 -0.179681 -0.047661 -0.164179 -0.0783781 -0.158156 -0.0616555 -0.1168 -0.0692721 -4.13508 0.0114444 -0.0345882 0.00366831 0.0931237 -1.75513 -0.848144 -1.79412 -3.51255 0.192744 3.27233 0.133024 -0.808085 -0.463841 0.329778 0.27938 -0.201241 -0.60699 -0.227473 3.13662 0.226458
internal_weight=0 3773 3746 3724 3700 3678 3642 3621 3596 70 3526 3497 3476 3324 170 149 124 79 3154 60 3094 535 509 2559 2539 489 436 400 53 2517
internal_count=3801 3773 3746 3724 3700 3678 3642 3621 3596 70 3526 3497 3476 3324 170 149 124 79 3154 60 3094 535 509 2559 2539 489 436 400 53 2517
is_linear=0
shrinkage=0.1


Tree=64
num_leaves=31
num_cat=0
split_feature=63 9 7 57 51 150 38 77 102 10 43 122 39 39 115 0 1 5 30 54 43 110 26 124 109 94 91 55 74 22
split_gain=1.66313e+06 1.3703e+06 1.4957e+06 159432 110387 177546 176323 88811.7 83777.5 66207.5 90077.2 65031.6 46848.3 69251.5 42582.4 74284.8 130685 101285 75200.7 73375.5 212278 96860.2 103789 101246 111450 98591.9 155390 82778.6 75259.9 128313
threshold=0.97542750338497342 1.5009905981204954e-06 1.0708400422864955e-07 2.5676879330353991e-19 1.5066989932774682e-14 0.61250000000000016 4.6166007524598237e-15 1.7912689822415884 0.95975617813888892 7.7141158494721115e-10 3.6117368315365354e-12 0.64672276221144298 5.5124959546501531e-15 5.0662280950204731e-15 298.50000000000006 3.0899907089122564e-13 1258849380.6082337 9.3483642900089729e-12 3.4062079678473458e-19 9.174559188646997e-12 1.4918164619098052e-12 0.1362459821456635 7.1258934571259225 -0.0010606290614571438 11605.000000000002 -0.15515717156769762 3.138036802739844 1.3780558178600027e-11 0.9359373615074289 6.6389056265934068
decision_type=2 2 2 2 2 2 2 2 2 2 2 2 2 2 2 2 2 2 2 2 2 2 2 2 2 2 2 2 2 2
left_child=1 2 3 4 6 -6 7 8 9 10 11 12 13 14 19 17 -17 -16 -19 20 28 25 23 -23 -25 26 -21 -24 -1 -30
right_child=-2 -3 -4 -5 5 -7 -8 -9 -10 -11 -12 -13 -14 -15 15 16 -18 18 -20 21 -22 22 27 24 -26 -27 -28 -29 29 -31
leaf_value=-0.2568584269367527 24.281696643573898 -19.330132541140998 23.910614651900072 -8.645634613931179 -1.6073601549321954 10.958334431181784 -9.0936144001104608 -5.827829881067629 -5.8397668571472172 5.097450401306153 -6.4457049023021362 -5.0097103705772987 4.8360541093349454 -4.3808736733264402 -0.31552141423376517 -0.97841841819581021 -9.0373923751024101 9.0260718822479244 1.0553984444716882 1.5622222808003425 -10.358381009101869 -4.8789815913799197 6.9961888762081372 0.75602679152388474 -5.924140423315543 1.7017346527003037 14.027787771224977 1.5716995794531758 9.2761798945340246 0.87010989217804036
leaf_weight=991 28 37 26 22 22 23 22 27 25 25 22 26 20 36 1420 89 26 20 29 20 20 43 34 333 27 79 20 163 22 104
leaf_count=991 28 37 26 22 22 23 22 27 25 25 22 26 20 36 1420 89 26 20 29 20 20 43 34 333 27 79 20 163 22 104
internal_value=0 -0.180198 0.00945595 -0.158045 -0.107414 4.81511 -0.16822 -0.113992 -0.0710666 -0.0306582 -0.0668328 -0.0269875 0.0100694 -0.0176981 0.027963 -0.352881 -2.80045 -0.161275 4.30873 0.352994 -0.147007 1.14368 0.626777 -0.292782 0.255014 3.74989 7.79501 2.50791 0.0358287 2.33784
internal_weight=0 3773 3736 3710 3688 45 3643 3621 3594 3569 3544 3522 3496 3476 3440 1584 115 1469 49 1856 1137 719 600 403 360 119 40 197 1117 126
internal_count=3801 3773 3736 3710 3688 45 3643 3621 3594 3569 3544 3522 3496 3476 3440 1584 115 1469 49 1856 1137 719 600 403 360 119 40 197 1117 126
is_linear=0
shrinkage=0.1


Tree=65
num_leaves=31
num_cat=0
split_feature=79 68 55 9 59 145 122 63 71 37 97 119 102 77 38 96 62 8 103 66 22 22 97 133 96 120 95 95 127 65
split_gain=1.64102e+06 440732 1.418e+06 884612 395346 100704 67244.2 63640.1 63108.8 54432.4 171515 133892 49767.4 47140.6 46640.9 42457.4 132107 83542.9 73748.2 47848.6 71557.4 72491.2 47981 56914.8 49857.8 48543.6 71729 56779.2 53020.1 94843.6
threshold=0.95861165551361127 390.50000000000006 2.9597232052578372e-10 1.2819876873269997e-06 4.6535552796308069e-19 0.1125 0.64672276221144298 0.97271973505169673 0.95508566312377463 2.1612055743572411e-14 5.8719990266206663 21912.000000000004 0.95975617813888892 1.7912689822415884 3.6587994521367145e-15 0.16991570756219102 0.8764238585493368 0.79991501255760744 0.14250000000000004 0.75837089184666462 7.245024943886202 7.0778991997741132 5.377517213679103 0.25954978063752704 0.16129460732057052 0.055833333333333339 -0.05803279842385433 0.16989315865086999 245.50000000000003 0.45985032543347099
decision_type=2 2 2 2 2 2 2 2 2 2 2 2 2 2 2 2 2 2 2 2 2 2 2 2 2 2 2 2 2 2
left_child=1 2 3 4 5 6 7 8 9 12 11 -11 13 14 15 19 17 -17 -19 20 21 -1 23 -21 25 27 -27 28 29 -24
right_child=-2 -3 -4 -5 -6 -7 -8 -9 -10 10 -12 -13 -14 -15 -16 16 -18 18 -20 22 -22 -23 24 -25 -26 26 -28 -29 -30 -31
leaf_value=-4.1838792262253941 24.119721662998202 11.506914722546936 -23.551140484443081 19.87680015563965 -12.291463273101384 -5.6456227475946603 -5.0683762656317821 -4.4989217303693296 -4.0729769496541275 11.776375849350639 -4.1507549990778392 0.73229181198846727 -4.7715282808650619 -4.4166292260090509 -3.600964395233563 -0.75401364741000265 6.0720290383696565 -1.1064010000228881 -8.8950994949187017 0.06306456141746962 -7.4717274886369713 3.0782339010919846 8.6935147149222232 -3.2888391007860025 3.6142256695694392 -1.8708123002509194 0.57674799858973624 4.7655010588963824 0.30060606115486355 0.85030532047666352
leaf_weight=27 28 32 26 22 27 33 27 32 38 23 23 21 22 24 35 88 20 20 31 130 20 28 21 83 45 242 237 30 2308 58
leaf_count=27 28 32 26 22 27 33 27 32 38 23 23 21 22 24 35 88 20 20 31 130 20 28 21 83 45 242 237 30 2308 58
internal_value=0 -0.178996 -0.278956 -0.116082 -0.235184 -0.14639 -0.0964378 -0.0592103 -0.0194591 0.0241025 2.84727 6.50534 -0.030424 -0.000164601 0.030801 0.0683192 -1.52697 -2.62035 -5.84071 0.146873 -2.34945 -0.486803 0.206234 -1.24308 0.3112 0.259875 -0.659806 0.442137 0.387801 2.93521
internal_weight=0 3773 3741 3715 3693 3666 3633 3606 3574 3536 67 44 3469 3447 3423 3388 159 139 51 3229 75 55 3154 213 2941 2896 479 2417 2387 79
internal_count=3801 3773 3741 3715 3693 3666 3633 3606 3574 3536 67 44 3469 3447 3423 3388 159 139 51 3229 75 55 3154 213 2941 2896 479 2417 2387 79
is_linear=0
shrinkage=0.1


Tree=66
num_leaves=31
num_cat=0
split_feature=141 137 4 63 50 7 145 36 79 125 1 9 17 71 48 60 56 54 75 60 152 33 153 79 148 32 104 76 116 122
split_gain=1.62412e+06 961177 988889 500409 360769 408447 83245.6 82815.6 84167 127460 94623 62937.8 59877.1 54224.3 50557.8 45609.3 42359.1 45060 39931.6 39730.6 160900 79346.2 60581.5 47908.2 43318.4 84147.5 63050.8 56937.4 137705 104954
threshold=0.52326077783167746 22.148669105175372 4.4293797039590529e-12 0.97542750338497342 7.9364054933937407e-11 1.0708400422864955e-07 0.1125 5.0251245776662355e-14 0.87602672546129656 0.34615308553474178 24457919130.249519 6.6915770192362248e-07 46.953581051823868 0.94841971893329557 8.7218570420236726e-15 0.96168865106072443 -0.4084190510605224 3.232680023724525e-12 1.7802813579955978 0.95520094972845027 0.1827801334541779 2.736054676194885e-13 32.231384952030133 0.60344076898335375 0.07463992340756366 2.6157981026271594e-19 0.066196666013254427 0.49250000000000005 -0.025671509969608042 0.19150359784665413
decision_type=2 2 2 2 2 2 2 2 2 2 2 2 2 2 2 2 2 2 2 2 2 2 2 2 2 2 2 2 2 2
left_child=1 -1 3 4 5 6 7 8 11 12 -11 14 -10 -14 -3 16 17 18 -16 24 21 22 23 -21 25 26 -18 28 -26 -29
right_child=-2 2 -4 -5 -6 -7 -8 -9 9 10 -12 -13 13 -15 15 -17 19 -19 -20 20 -22 -23 -24 -25 27 -27 -28 29 -30 -31
leaf_value=-19.720928541183472 23.995200066907067 -2.8710907970865569 20.623840643012006 -14.879976537953253 12.68360264084556 -14.41211821258068 -5.0075403697350449 5.8184871673583984 -4.2409399814465472 -11.726751484870912 -2.9585588514804844 5.2546918288521152 -0.47549320595419931 5.2696002558618789 7.0736801624298096 -3.0691149342319242 3.8272132179953839 -2.1013647702336313 1.9032023031580245 -1.6894568690886864 9.5384728951887663 4.6388619599739718 -4.1802240894734863 4.8205621862411503 -0.28226406023928402 -7.0212185478210447 -0.62515743486159425 -0.9156799806335143 3.1414043957111883 0.69384290642371926
leaf_weight=25 28 60 23 23 22 20 34 24 34 20 32 23 92 20 20 46 33 20 59 26 22 30 40 20 277 20 879 770 204 855
leaf_count=25 28 60 23 23 22 20 34 24 34 20 32 23 92 20 20 46 33 20 59 26 22 30 40 20 277 20 879 770 204 855
internal_value=0 -0.178072 -0.0477167 -0.175353 -0.0839955 -0.160323 -0.0824448 -0.0362636 -0.0752736 -2.07957 -6.33094 0.0413099 -0.565379 0.550416 0.00584469 0.0578218 0.101742 2.13874 3.21218 0.0382463 1.69774 0.210709 -1.334 1.14099 -0.0371357 -0.604764 -0.464052 0.214065 1.16977 -0.0688233
internal_weight=0 3773 3748 3725 3702 3680 3660 3626 3602 198 52 3404 146 112 3381 3321 3275 99 79 3176 138 116 86 46 3038 932 912 2106 481 1625
internal_count=3801 3773 3748 3725 3702 3680 3660 3626 3602 198 52 3404 146 112 3381 3321 3275 99 79 3176 138 116 86 46 3038 932 912 2106 481 1625
is_linear=0
shrinkage=0.1


Tree=67
num_leaves=31
num_cat=0
split_feature=77 82 103 83 40 58 49 49 3 130 141 118 120 101 28 63 18 17 96 80 142 102 105 49 65 84 113 116 129 10
split_gain=1.55067e+06 845326 769249 396330 3.37365e+06 2.56403e+06 337853 151894 116885 135689 92127.9 88585.5 70748.3 138335 128136 64391.6 60920.8 53839.4 53620.9 85408 96954.8 55851.2 48838.7 46962.2 48701.8 51380.4 47099.7 74887.7 48450.6 43980.3
threshold=1.7912689822415884 0.95805255569186987 0.27250000000000002 0.18680264198572197 1.0947418869287117e-14 5.8970672271898522e-18 2.0813389360629223e-11 2.415815388192661e-10 0.95817678973887288 0.56181010448107449 0.52326077783167746 0.51574747136444599 0.067500000000000018 -0.048029593301207638 426.23406232943984 0.97271973505169673 40.036883376631167 56.392259638037835 0.16991570756219102 0.038624806601163124 0.11863644622908662 0.95975617813888892 0.64416666666666678 1.6353758467675669e-10 0.79746800816400498 1.4358602719325704 0.0051488583255757834 0.018678774434279843 0.1760273152770597 3.1322916750732197e-10
decision_type=2 2 2 2 2 2 2 2 2 2 2 2 2 2 2 2 2 2 2 2 2 2 2 2 2 2 2 2 2 2
left_child=1 2 3 5 6 7 16 8 9 10 11 12 14 -14 15 17 -5 18 21 -20 -21 23 -22 24 25 29 -26 -28 -29 -1
right_child=-2 -3 -4 4 -6 -7 -8 -9 -10 -11 -12 -13 13 -15 -16 -17 -18 -19 19 20 22 -23 -24 -25 26 -27 27 28 -30 -31
leaf_value=0.036567464217367666 23.446377944946292 -18.143000217584465 19.036183739843825 4.568139045888727 42.694677672386177 -35.163963722047349 -14.697590911984443 -6.4091728979035425 6.501374682949649 -7.3008125378535347 -6.6537263995125189 5.4002617033322657 -9.3420291503270469 0.45930092549986307 7.9834451723098754 -4.8200504906475548 -2.2677234604954721 -4.7240126033624019 -7.1816724126155567 4.8709899943807855 -6.8024935460090639 -5.1683158957585693 -0.46421806985332126 4.3653304301775426 -0.1511121648806529 5.1291396176531201 -8.5710529983043671 0.4668214367657173 -5.4398614548501518 1.3174633230138946
leaf_weight=2668 28 26 21 22 20 21 20 38 27 26 21 30 24 36 20 28 32 24 26 23 20 20 31 26 122 21 20 41 21 298
leaf_count=2668 28 26 21 22 20 21 20 38 27 26 21 30 24 36 20 28 32 24 26 23 20 20 31 26 122 21 20 41 21 298
internal_value=0 -0.173999 -0.0493143 -0.156882 6.25397 -0.322801 -3.59486 -0.12018 -0.0532948 -0.103203 -0.0500393 -0.0104058 -0.0571974 -3.46123 0.00271515 -0.0443827 0.517258 -0.0045973 0.0293452 -2.25131 -0.519025 0.0998011 -2.94982 0.132553 0.0980645 0.20016 -1.39683 -3.25023 -1.53383 0.165262
internal_weight=0 3773 3747 3726 94 3632 74 3611 3573 3546 3520 3499 3469 60 3409 3389 54 3361 3337 100 74 3237 51 3217 3191 2987 204 82 62 2966
internal_count=3801 3773 3747 3726 94 3632 74 3611 3573 3546 3520 3499 3469 60 3409 3389 54 3361 3337 100 74 3237 51 3217 3191 2987 204 82 62 2966
is_linear=0
shrinkage=0.1


Tree=68
num_leaves=31
num_cat=0
split_feature=100 19 149 17 32 77 42 10 122 17 60 128 57 103 127 89 75 120 99 97 94 74 105 95 89 123 124 83 34 9
split_gain=1.62894e+06 386593 1.92758e+06 1.43239e+06 346484 134767 98945.1 103497 71923.9 71989 58225.6 63528.4 63000.2 41261.3 46510 64911.4 56782 45555.3 82226 126498 141146 176886 96350 88491 73522.8 67852.1 63908.5 82521.5 83693.2 111162
threshold=0.96323017047029136 55.39028203547133 0.11107659488971013 56.839634292065242 1.4966054570011099e-18 1.7912689822415884 2.8154388843099523e-12 7.7141158494721115e-10 0.64672276221144298 56.052890416704493 0.96314834340765099 0.095224051285101141 1.253692407086246e-19 0.072500000000000023 245.50000000000003 21.241614452438164 1.7813338454341585 0.047500000000000007 0.077500000000000013 5.8822106808324444 -0.14046037778447723 0.93099252441843461 0.62750000000000006 -0.15854770721041986 25.662498296174935 0.20708157374159389 -0.067111592931888037 0.10521918544508148 2.5715422263613707e-20 4.1905283609237106e-07
decision_type=2 2 2 2 2 2 2 2 2 2 2 2 2 2 2 2 2 2 2 2 2 2 2 2 2 2 2 2 2 2
left_child=1 3 -3 4 5 6 7 8 9 10 12 -12 13 -1 15 -15 -17 18 19 20 21 22 23 -16 -21 -20 -19 -28 -29 -30
right_child=-2 2 -4 -5 -6 -7 -8 -9 -10 -11 11 -13 -14 14 17 16 -18 26 25 24 -22 -23 -24 -25 -26 -27 27 28 29 -31
leaf_value=-1.6862615621173298 24.03077929190227 12.006747393131256 -25.590604254404706 24.29586934943994 -13.33989023923874 -7.1809208481400111 -6.9342341858006664 5.3613630594526027 -5.2447778383890791 -6.0467009496688853 0.16128853797912598 -7.8091806411743168 5.0150804328918461 -0.25844638373589879 -2.4582348157377805 1.9941375738953893 7.6010559658209491 2.1779215964270224 0.265547031276192 -6.7221794670278374 1.0248468811062004 12.723480234146118 7.8751707996640894 5.9246224498748781 -0.26614217724692957 -1.3211846820294522 -1.2156960042428022 5.6047557067126039 -1.7895922006552039 2.6205253311816388
leaf_weight=143 28 25 30 24 20 27 21 35 27 20 20 20 25 99 34 73 24 81 1129 22 252 25 28 20 89 354 842 32 130 102
leaf_count=143 28 25 30 24 20 27 21 35 27 20 20 20 25 99 34 73 24 81 1129 22 252 25 28 20 89 354 842 32 130 102
internal_value=0 -0.178336 -8.5009 -0.0552212 -0.213431 -0.141975 -0.0898631 -0.0502238 -0.102968 -0.0640153 -0.0302529 -3.82395 0.0130541 -0.0228904 0.0484112 1.54291 3.38142 -0.0448762 0.252071 1.40466 2.3169 5.35985 3.11484 0.646527 -1.54572 -0.113214 -0.53345 -0.732023 0.810601 0.149339
internal_weight=0 3773 55 3718 3694 3674 3647 3626 3591 3564 3544 40 3504 3479 3336 196 97 3140 1953 470 359 107 82 54 111 1483 1187 1106 264 232
internal_count=3801 3773 55 3718 3694 3674 3647 3626 3591 3564 3544 40 3504 3479 3336 196 97 3140 1953 470 359 107 82 54 111 1483 1187 1106 264 232
is_linear=0
shrinkage=0.1


Tree=69
num_leaves=31
num_cat=0
split_feature=63 9 58 57 9 24 38 77 100 141 151 75 21 39 128 38 110 75 8 90 152 143 94 71 122 9 93 18 90 90
split_gain=1.58395e+06 810257 1.34091e+06 256335 119138 125941 271383 110916 80894 67042.2 46340 42478 82125 64457.9 97389.8 62997.3 61327.4 50782.2 101373 113051 84669.2 76018.5 101453 119275 75518.5 74751.6 95693 88542.2 68461.9 233524
threshold=0.97542750338497342 1.5009905981204954e-06 4.5798850163739725e-19 1.855766096280437e-19 7.8049919590158931e-07 7.476245075202125 3.9486680571033602e-15 1.7912689822415884 0.95765642053760847 0.52326077783167746 285.50000000000006 1.7884326655004901 1.7005810970127903e-09 5.8539702257980605e-15 0.16652403173607513 3.6587994521367145e-15 0.20630434479245693 1.7799293141240176 0.47254486978977678 0.92950995533611203 0.40679460819832286 1.0450317098124635 -0.16906711875066807 0.94425180345750237 0.037616247294548384 4.0286004609501487e-07 0.22250000000000003 47.576948975016059 0.98143132811472056 0.97678723959813307
decision_type=2 2 2 2 2 2 2 2 2 2 2 2 2 2 2 2 2 2 2 2 2 2 2 2 2 2 2 2 2 2
left_child=1 2 3 4 5 7 10 8 9 11 -7 13 -13 15 -15 17 -14 21 20 -20 -19 24 23 -23 -1 26 -24 -27 29 -21
right_child=-2 -3 -4 -5 -6 6 -8 -9 -10 -11 -12 12 16 14 -16 -17 -18 18 19 28 -22 22 25 -25 -26 27 -28 -29 -30 -31
leaf_value=-3.0961792793679748 23.696572945799147 -14.901373769463721 21.389456564599072 -9.2528178691864014 7.3893325646718342 -2.9043635066817792 -13.857401062193373 -6.4628287280047392 -4.7453444306221275 -5.1408596096038828 2.9074559958084771 -0.41013012821817085 -1.3899924668398771 -1.1567591071128847 8.2917328839500737 -4.9614215215047208 -9.0411236774921431 -1.6233612787012661 8.5512670430270106 0.90069423159739115 3.3817578613758088 2.846474541028341 -5.3699150919914249 -5.4948299205303197 -0.18271586512664847 7.5423303122423135 2.1014239871253571 0.90067059362635904 -0.10176996722493484 7.3891451795311545
leaf_weight=94 28 37 29 31 21 34 21 27 36 25 23 451 22 20 24 24 20 218 22 301 40 30 20 40 1662 49 120 34 230 68
leaf_count=94 28 37 29 31 21 34 21 27 36 25 23 451 22 20 24 24 20 218 22 301 40 30 20 40 1662 49 120 34 230 68
internal_value=0 -0.175856 -0.0300196 -0.197585 -0.121221 -0.164374 -4.13952 -0.0776919 -0.0291289 0.0191875 -0.559243 0.0561612 -0.803998 0.197703 3.99696 0.141074 -5.03339 0.182898 0.818736 1.51094 -0.847374 -0.0898702 1.40126 -1.91999 -0.338676 2.44381 1.03409 4.82165 1.25236 2.0964
internal_weight=0 3773 3736 3707 3676 3655 78 3577 3550 3514 57 3489 493 2996 44 2952 42 2928 879 621 258 2049 293 70 1756 223 140 83 599 369
internal_count=3801 3773 3736 3707 3676 3655 78 3577 3550 3514 57 3489 493 2996 44 2952 42 2928 879 621 258 2049 293 70 1756 223 140 83 599 369
is_linear=0
shrinkage=0.1


Tree=70
num_leaves=31
num_cat=0
split_feature=122 82 0 103 59 40 77 49 155 32 37 38 63 103 117 65 69 100 77 154 47 154 84 118 39 90 147 52 105 46
split_gain=1.56751e+06 809102 734144 3.87749e+06 439562 114228 70411.2 67716.8 247581 79240.4 57375.9 78758 48870.7 39659 71518.2 61847.7 60571.9 54798.9 54286.9 47263.8 63967.9 56059.1 141954 61492.3 48903.6 77061.9 63093.6 53075.3 55264.7 47023.7
threshold=0.64672276221144298 0.95805255569186987 1.1680818686188409e-12 0.17583333333333337 4.6535552796308069e-19 1.6205176768640348e-14 1.7912689822415884 2.0084566682784704e-10 0.12172537121894124 5.3257615193836931e-19 2.1612055743572411e-14 3.6587994521367145e-15 0.97271973505169673 0.20250000000000004 0.46959220576160149 0.70918297651792561 247.50000000000003 0.95906546190560105 1.7802643928128166 0.986959739839672 3.7885128724977456e-12 0.98281041113044187 1.1117724719129443 0.42998663070311299 4.3443361908092685e-15 0.97997396772552237 0.27598783340085725 6.0099067700100523e-12 0.60416666666666685 1.4920415984758087e-12
decision_type=2 2 2 2 2 2 2 2 2 2 2 2 2 2 2 2 2 2 2 2 2 2 2 2 2 2 2 2 2 2
left_child=1 2 4 -4 5 6 7 9 -9 10 11 12 13 17 15 16 18 19 -15 21 29 24 -23 -24 27 26 -26 -1 -29 -21
right_child=-2 -3 3 -5 -6 -7 -8 8 -10 -11 -12 -13 -14 14 -16 -17 -18 -19 -20 20 -22 22 23 -25 25 -27 -28 28 -30 -31
leaf_value=0.11209493012818461 23.573301795550758 -17.423794154767638 -16.989892983436587 37.193286459786549 -12.481399232354658 -6.1657717402423584 -5.2549950012793909 12.012090630531311 -3.3608569795435126 -6.3561184358596812 4.1712956408038737 -5.1004520738797803 -4.1985957520348682 -1.531208798326092 4.6387981328097254 -5.5843853100140892 -0.036574807497619211 -4.8502155043862087 -6.6390736249940732 -2.5250228723575332 -6.8068736026684453 9.4554315219106879 3.0813986386670624 -2.5205393419704505 2.2579553129122809 -0.43758574821054935 8.3521070096803758 -7.2440289592742921 -0.50164955200687533 1.9655129100267705
leaf_weight=2571 28 27 25 28 29 31 26 20 22 20 32 31 28 81 22 30 261 22 28 58 21 23 43 36 65 80 23 20 31 39
leaf_count=2571 28 27 25 28 29 31 26 20 22 20 32 31 28 81 22 30 261 22 28 58 21 23 43 36 65 80 23 20 31 39
internal_value=0 -0.174941 -0.0506167 11.6352 -0.218325 -0.121265 -0.0696876 -0.0323109 3.95959 -0.0793403 -0.0439283 -0.0823249 -0.0376489 -0.00391798 -0.912194 -1.2175 -0.863427 0.122498 -2.84332 0.158843 -1.80289 0.238886 2.54153 0.528617 0.154704 1.80868 3.85074 0.0487278 -3.14572 -0.71955
internal_weight=0 3773 3746 53 3693 3664 3633 3607 42 3565 3545 3513 3482 3454 422 400 370 3032 109 3010 118 2892 102 79 2790 168 88 2622 51 97
internal_count=3801 3773 3746 53 3693 3664 3633 3607 42 3565 3545 3513 3482 3454 422 400 370 3032 109 3010 118 2892 102 79 2790 168 88 2622 51 97
is_linear=0
shrinkage=0.1


Tree=71
num_leaves=31
num_cat=0
split_feature=79 57 34 141 58 31 24 117 77 7 63 15 49 73 125 25 89 83 17 125 91 141 24 23 66 105 111 147 96 91
split_gain=1.59907e+06 364008 420682 160215 131342 122839 75917.1 209043 57648.2 46575.3 40622.8 39622.1 100195 74586.7 61882.3 67982.7 64352.7 52453 50704.5 137820 48405.4 115955 46811.8 43431.3 49199.6 42780.9 73752.1 174983 62433.5 56226
threshold=0.95861165551361127 3.5823736970021862e-18 2.0988117549227946e-17 0.52326077783167746 2.3086520562959719e-19 9.8809453233261752e-18 7.476245075202125 0.15574056577461093 1.7912689822415884 6.7066884350609387e-08 0.97271973505169673 48.605134090611507 1.297534076966503e-10 99.500000000000014 0.30761370091081308 7.2201340660904298 28.14351985852382 0.094434066606245926 53.772532071295792 0.31116020105015152 3.1516659233094901 0.07004199336825255 7.40657768554789 7.2962739138264796 0.82157388746575055 0.58916666666666673 2270.5000000000005 0.24171034974912711 0.1426629053179749 3.1508062405689432
decision_type=2 2 2 2 2 2 2 2 2 2 2 2 2 2 2 2 2 2 2 2 2 2 2 2 2 2 2 2 2 2
left_child=1 2 3 4 5 6 8 -8 9 10 11 18 13 20 16 -16 22 -17 25 -20 23 -22 -15 -13 -25 -1 27 -27 29 -28
right_child=-2 -3 -4 -5 -6 -7 7 -9 -10 -11 -12 12 -14 14 15 17 -18 -19 19 -21 21 -23 -24 24 -26 26 28 -29 -30 -31
leaf_value=-0.88289961398849182 23.809436253138955 11.614751060192402 -10.590237228686995 -7.9721882765109733 6.6086374570583475 -7.9634033203125005 1.6135479341192944 -8.9084708663395471 -4.7294954501665556 3.5750676605436542 -3.5868979334831241 3.4605050546558282 7.5034772843122486 3.0443548978567123 4.1532129425751538 1.0977301315619397 0.55617775768041611 -3.9096308640071324 0.67438044475786618 -9.8457724343240258 1.1141924039357238 -7.382533863906203 8.9491597878521887 -1.3873835864011199 0.46469520259339769 11.157892663851381 0.64230766224424618 0.33431868162637546 -1.8328676377507773 -0.64627725896322064
leaf_weight=614 28 26 39 26 29 20 41 35 26 36 32 38 20 25 38 52 32 35 33 20 36 29 29 192 567 20 908 59 176 540
leaf_count=614 28 26 39 26 29 20 41 35 26 36 32 38 20 25 38 52 32 35 33 20 36 29 29 192 567 20 908 59 176 540
internal_value=0 -0.176693 -0.258513 -0.149846 -0.0946093 -0.147824 -0.104799 -3.23212 -0.0379795 -0.00343418 -0.0402943 -0.00752174 0.490567 0.359851 2.04502 0.624536 4.10968 -0.916725 -0.237231 -3.29549 -0.0526437 -2.67665 6.21545 0.16136 -0.00381485 -0.167275 0.0907361 3.07446 -0.0544083 0.161758
internal_weight=0 3773 3747 3708 3682 3653 3633 76 3557 3531 3495 3463 1093 1073 211 125 86 87 2370 53 862 65 54 797 759 2317 1703 79 1624 1448
internal_count=3801 3773 3747 3708 3682 3653 3633 76 3557 3531 3495 3463 1093 1073 211 125 86 87 2370 53 862 65 54 797 759 2317 1703 79 1624 1448
is_linear=0
shrinkage=0.1


Tree=72
num_leaves=31
num_cat=0
split_feature=77 82 82 68 55 9 59 122 40 154 95 57 17 101 21 21 93 150 65 121 107 126 141 91 119 144 136 121 145 132
split_gain=1.48986e+06 810732 623260 376555 1.05837e+06 725880 298005 108395 86113.3 47260.5 88027 81504.2 68124.2 43897 51319.8 64659.4 62402.5 50626.8 40726.4 37280.6 59572.3 61626.1 55913.2 53067.3 194398 200479 97915.8 70631.6 76760.4 71495.4
threshold=1.7912689822415884 0.95805255569186987 0.9522528962270852 390.50000000000006 2.9597232052578372e-10 1.2819876873269997e-06 4.6535552796308069e-19 0.64672276221144298 1.6205176768640348e-14 0.99348734065932498 -0.13782584532078893 1.3800662815426936e-19 56.392259638037835 -0.27840468611851737 1.9817704449616185e-09 1.8886169518986631e-09 0.22250000000000003 0.70583333333333342 0.6928245683450226 0.039564439804113082 0.33923190148829013 0.46762752848047917 -0.0051589858844156315 3.1392719629145809 16988.000000000004 0.14571696568919501 2.286403911535281 0.11073727858558775 0.034166666666666672 0.58250000000000013
decision_type=2 2 2 2 2 2 2 2 2 2 2 2 2 2 2 2 2 2 2 2 2 2 2 2 2 2 2 2 2 2
left_child=1 2 3 4 5 6 7 8 9 11 -11 12 13 18 15 17 -17 19 -1 20 21 -15 -21 27 25 -25 -26 29 -29 -24
right_child=-2 -3 -4 -5 -6 -7 -8 -9 -10 10 -12 -13 -14 14 -16 16 -18 -19 -20 22 -22 -23 23 24 26 -27 -28 28 -30 -31
leaf_value=-1.0079300220900527 22.982035217966356 -17.768031276189365 15.090042561513407 10.816980102754409 -20.355185827842128 18.430632473173599 -11.095165132522583 -6.4519572094634725 -5.4272837559382126 -7.7895362886515533 1.0583380994589433 5.1841305812199918 -5.7289909022195005 -0.046882446050566913 4.1130741565458235 -6.9319772353539095 0.39717122032528834 -4.0100180291136107 -5.721923310416086 -2.4881528723807564 -1.5270004839162779 4.7007632381149698 -1.3838659447226032 0.94734285831451415 -5.5768361594365992 15.106402759552005 1.0839011811361317 1.5910061576836547 -2.2171061908109833 1.0853524130193264
leaf_weight=144 28 26 27 31 26 21 25 27 30 22 23 30 21 1161 31 26 21 30 21 63 293 28 145 20 23 20 546 71 208 613
leaf_count=144 28 26 27 31 26 21 25 27 30 22 23 30 21 1161 31 26 21 30 21 63 293 28 145 20 23 20 546 71 208 613
internal_value=0 -0.170553 -0.0484463 -0.158322 -0.250552 -0.107849 -0.214743 -0.13954 -0.0920647 -0.047105 -3.26729 -0.00587927 -0.0505565 -0.0161319 0.0634803 0.0250662 -3.65725 0.0787976 -1.60789 0.117238 -0.249811 0.0649208 0.435534 0.547437 1.28837 8.02687 0.814662 0.112308 -1.24802 0.613009
internal_weight=0 3773 3747 3720 3689 3663 3642 3617 3590 3560 45 3515 3485 3464 3299 3268 47 3221 165 3191 1482 1189 1709 1646 609 40 569 1037 279 758
internal_count=3801 3773 3747 3720 3689 3663 3642 3617 3590 3560 45 3515 3485 3464 3299 3268 47 3221 165 3191 1482 1189 1709 1646 609 40 569 1037 279 758
is_linear=0
shrinkage=0.1


Tree=73
num_leaves=31
num_cat=0
split_feature=79 6 57 63 31 77 122 32 115 90 7 94 58 121 68 65 33 128 148 117 146 75 117 111 98 102 143 72 18 146
split_gain=1.4509e+06 417259 427300 195909 123405 106929 87998.8 86495.5 339131 153062 51272.1 36768.4 107946 48154.6 34236.6 45954.3 132463 54231.4 36295 97764.8 71777.4 94024.6 156867 121405 142343 85209.4 68044.4 99350.3 69691 80794
threshold=0.95861165551361127 3.4091898022688023e-07 8.73294085244982e-19 0.97542750338497342 1.5957911121668787e-17 1.7912689822415884 0.64672276221144298 4.2381698991423628e-19 282.50000000000006 0.98809709108784249 6.8844819222890987e-08 -0.22365672124721772 1.9545813071104306e-20 0.083665770433649853 187.50000000000003 0.32912277873005541 3.547767862076863e-14 0.15261817135420128 0.096896454316060046 0.066333518842312797 0.25585699592936012 1.7797951513557231 0.41047457183964325 2572.5000000000005 1.0915908664969305 0.3491389223871732 1.0450504281613413 0.85571205867165634 39.526022660909625 0.24134246706885637
decision_type=2 2 2 2 2 2 2 2 2 2 2 2 2 2 2 2 2 2 2 2 2 2 2 2 2 2 2 2 2 2
left_child=1 2 3 4 5 6 7 10 -9 -10 11 12 13 -1 -13 16 17 -16 19 -17 21 26 23 24 25 -23 28 -28 29 -20
right_child=-2 -3 -4 -5 -6 -7 -8 8 9 -11 -12 14 -14 -15 15 18 -18 -19 20 -21 -22 22 -24 -25 -26 -27 27 -29 -30 -31
leaf_value=-1.5478432344198227 22.679523536137172 11.993729053224836 -13.55964207649231 -9.804844747270856 7.1833353954812758 -6.5547495005222478 -5.8067614471470872 -13.587466990429423 -4.8171458341457232 5.4064181502908468 4.8103121605786416 3.7140852708816534 -8.4682680642604833 3.9746511864662168 -1.690566322150139 5.0410256922245029 -7.4290297716856006 3.8334531280729509 -0.12402647550289447 -0.5695168048437349 -0.3606745583302714 4.9179239158545229 9.775901504516602 -1.1562933676146174 10.324658903868304 0.67421984795021694 0.12026660908823428 7.4446344191028233 -0.28067268229255055 8.1099974718960848
leaf_weight=75 28 28 24 21 23 26 27 23 27 32 22 25 20 20 52 32 32 27 26 1055 933 70 25 111 23 146 46 31 749 22
leaf_count=75 28 28 24 21 23 26 27 23 27 32 22 25 20 20 52 32 32 27 26 1055 933 70 25 111 23 146 46 31 749 22
internal_value=0 -0.168308 -0.259239 -0.173453 -0.118789 -0.164464 -0.118957 -0.0765807 -3.28743 0.727838 -0.00224711 -0.0323256 -1.79096 -0.385213 0.0270703 -0.0002005 -2.00122 0.19739 0.0677447 -0.404349 0.302926 0.798634 2.12322 1.5766 2.84585 2.04949 0.230306 3.06904 -0.0439505 3.6499
internal_weight=0 3773 3745 3721 3700 3677 3651 3624 82 59 3542 3520 115 95 3405 3380 111 79 3269 1087 2182 1249 375 350 239 216 874 77 797 48
internal_count=3801 3773 3745 3721 3700 3677 3651 3624 82 59 3542 3520 115 95 3405 3380 111 79 3269 1087 2182 1249 375 350 239 216 874 77 797 48
is_linear=0
shrinkage=0.1


Tree=74
num_leaves=31
num_cat=0
split_feature=141 82 103 95 148 9 58 9 59 77 94 49 3 59 17 68 65 51 77 84 95 99 108 154 113 153 57 89 84 34
split_gain=1.435e+06 893722 665787 343100 2.35267e+06 1.37082e+06 288051 230619 218263 87850.3 74104.3 79596.6 74154.8 54860.1 72363.2 48818.9 46161.5 98956.2 42544.2 36605.3 36943.7 113690 238802 104580 83559.2 77601 101309 73658.7 61189 61158.6
threshold=0.52326077783167746 0.95805255569186987 0.27250000000000002 -0.23220507582378777 0.083344737232710062 1.5009905981204954e-06 4.5798850163739725e-19 8.4034469274173007e-07 9.7735852987028187e-21 1.7912689822415884 -0.22365672124721772 4.447841441227955e-12 0.95817678973887288 2.3727942157082049e-19 56.392259638037835 187.50000000000003 0.32912277873005541 8.2403466880587378e-16 1.7873600666003424 1.4637120340360668 -0.13916018210264641 0.069166666666666682 0.0084433267226877422 0.9614875027091575 0.085445285813558661 33.889215746896959 9.1205472653941265e-21 24.023600564284333 1.3808650990810243 4.4312159191658622e-19
decision_type=2 2 2 2 2 2 2 2 2 2 2 2 2 2 2 2 2 2 2 2 2 2 2 2 2 2 2 2 2 2
left_child=1 2 3 4 -1 6 7 9 -6 10 11 -5 13 14 15 -12 17 18 -17 20 21 22 -18 27 25 29 -27 -24 -22 -23
right_child=-2 -3 -4 5 8 -7 -8 -9 -10 -11 12 -13 -14 -15 -16 16 19 -19 -20 -21 28 24 23 -25 -26 26 -28 -29 -30 -31
leaf_value=36.025548934936523 22.554957253592356 -18.295803002957946 18.159880037903786 0.17933197021484376 0.85957079592503993 -20.881997507810595 10.394487745716022 -10.617935478119623 -11.843665186564129 -5.8992744922637943 4.4431686391830452 -7.7233736221606923 -5.0455937081369866 5.2545053136348727 -5.4699076354503635 2.0097091858088971 12.385548139611881 -6.3073489261998077 -2.9019792137474849 4.3405474519729621 -0.1025250322608218 -0.19602803979212277 7.0400817509355225 -4.4819096187750498 5.2261534936966436 -0.29693237596483374 5.617910727113486 0.54853477152911101 -5.400580793077296 -3.4950957334230814
leaf_weight=20 28 27 20 25 38 32 26 21 21 26 25 26 29 20 24 45 24 36 29 20 2388 520 29 24 31 67 51 44 22 63
leaf_count=20 28 27 20 25 38 32 26 21 21 26 25 26 29 20 24 45 24 36 29 20 2388 520 29 24 31 67 51 44 22 63
internal_value=0 -0.167384 -0.0367197 -0.134393 6.38554 -0.275626 -0.0932181 -0.169195 -3.66192 -0.107697 -0.0651842 -3.8495 -0.00989916 0.0322831 0.00193903 0.0403604 0.00792004 -2.00714 0.0848583 0.0754364 0.0492941 0.614876 3.45442 1.24466 0.145497 -0.0791821 2.25948 3.12737 -0.150889 -0.552531
internal_weight=0 3773 3746 3726 79 3647 3615 3589 59 3568 3542 51 3491 3462 3442 3418 3393 110 74 3283 3263 853 121 97 732 701 118 73 2410 583
internal_count=3801 3773 3746 3726 79 3647 3615 3589 59 3568 3542 51 3491 3462 3442 3418 3393 110 74 3283 3263 853 121 97 732 701 118 73 2410 583
is_linear=0
shrinkage=0.1


Tree=75
num_leaves=31
num_cat=0
split_feature=63 9 0 18 31 141 47 77 125 100 103 5 47 25 9 9 90 132 65 64 87 51 96 152 152 5 139 90 112 2
split_gain=1.43237e+06 677796 1.148e+06 210178 202548 140951 117726 94731.1 89483.9 54275.6 45485.9 43903.7 57848.5 53458.1 46491.5 51172.3 38069.4 81439.1 36586.8 82191 168291 57575.3 68279.2 42084.1 66222.2 89339.9 105837 41258.1 38470.8 35965.6
threshold=0.97542750338497342 1.5009905981204954e-06 1.079187497433124e-12 49.971170061633721 1.5957911121668787e-17 0.52326077783167746 4.2110866478855166e-11 1.7912689822415884 0.55939694008017715 0.95765642053760847 0.26750000000000002 1.5071222001770173e-11 2.5665971544875474e-11 7.2232993083136972 6.6915770192362248e-07 6.1229992337501853e-07 0.8927479416180395 0.60916666666666675 0.79746800816400498 0.86063533449938734 5.7779540914195833 7.5631887610873785e-15 0.065129987348653218 -0.33211398999814029 -0.14152288616350664 9.8127350969050549e-14 1.4253770523040024 0.98604779377374874 0.21564932322733271 2.6968777389670476e-07
decision_type=2 2 2 2 2 2 2 2 2 2 2 2 2 2 2 2 2 2 2 2 2 2 2 2 2 2 2 2 2 2
left_child=1 2 3 4 5 6 7 8 9 10 11 12 14 -13 15 16 17 -1 19 23 21 27 -23 -18 25 -25 28 -21 -27 -11
right_child=-2 -3 -4 -5 -6 -7 -8 -9 -10 29 -12 13 -14 -15 -16 -17 18 -19 -20 20 -22 22 -24 24 -26 26 -28 -29 -30 -31
leaf_value=7.7050276780128488 22.534229049512319 -13.635398027703568 19.129918158438898 -9.5219316932062323 9.6595523448217477 -7.8279303004344305 -7.1197347501913715 -5.9938900700321902 -6.0101922149658202 -6.6678626483678816 -3.9792690208980015 -0.37963118731975554 -5.2038099198114303 6.8443091528756286 3.9158397921030565 -4.3938116965385587 3.3357628945764661 -0.85623477077484145 -1.3048301822467878 0.90187886145155316 10.430804313312878 8.0411016430173614 0.70276653468608863 2.1548013135365078 0.047161865531444261 1.1490419727105361 -9.8430995193225428 -3.8176234942895402 -3.5329126837076963 -0.67072931766510013
leaf_weight=20 28 37 31 24 21 24 24 27 25 20 28 20 21 21 31 26 37 25 196 59 22 21 32 35 2797 26 22 27 54 20
leaf_count=20 28 37 31 24 21 24 24 27 25 20 28 20 21 21 31 26 37 25 196 59 22 21 32 35 2797 26 22 27 54 20
internal_value=0 -0.16723 -0.033846 -0.194191 -0.133374 -0.189563 -0.139145 -0.092762 -0.0483184 -0.00645129 0.0351719 0.067361 0.0287125 3.32044 0.0607484 0.0255887 0.0596546 2.94877 0.020589 0.103534 2.30413 1.01789 3.61041 -0.0157177 -0.0579825 -2.20462 -3.70049 -0.579825 -2.01128 -3.6693
internal_weight=0 3773 3736 3705 3681 3660 3636 3612 3585 3560 3520 3492 3451 41 3430 3399 3373 45 3328 3132 161 139 53 2971 2934 137 102 86 80 40
internal_count=3801 3773 3736 3705 3681 3660 3636 3612 3585 3560 3520 3492 3451 41 3430 3399 3373 45 3328 3132 161 139 53 2971 2934 137 102 86 80 40
is_linear=0
shrinkage=0.1


Tree=76
num_leaves=31
num_cat=0
split_feature=86 82 9 140 57 63 141 77 40 128 144 8 119 17 94 152 126 68 128 21 61 98 60 127 150 128 89 112 152 26
split_gain=1.43478e+06 702015 947149 3.21947e+06 269137 114367 97506.1 76495.5 46619 42991.4 65715.6 40695.9 67185.8 64514.5 32082 60513 44112.3 37391.7 35976.5 57687.5 78497 85605.8 75803.1 58200.5 61455.3 57461.7 56492.5 77932 69252.7 60778.2
threshold=95.500000000000014 0.95805255569186987 1.2819876873269997e-06 0.42020556365271117 2.5676879330353991e-19 0.97542750338497342 0.52326077783167746 1.7912689822415884 1.6205176768640348e-14 0.58525169822925938 0.20286373678032718 0.95485522631218556 21491.500000000004 56.392259638037835 -0.24400091960630424 0.35889614009573817 0.23514857382894144 187.50000000000003 0.2783699110420873 1.6683656455289353e-09 0.95051528445415745 1.2276016462211168 0.92657691777598405 251.50000000000003 0.56250000000000011 0.26675024925207264 25.723996958384863 0.2054777766570636 -0.23842109656341595 7.1281448421127047
decision_type=2 2 2 2 2 2 2 2 2 2 2 2 2 2 2 2 2 2 2 2 2 2 2 2 2 2 2 2 2 2
left_child=-1 2 4 -4 5 6 7 8 9 11 -11 13 -13 14 15 16 -2 -16 25 20 21 23 -21 -20 -25 26 29 -28 -29 -19
right_child=1 -3 3 -5 -6 -7 -8 -9 -10 10 -12 12 -14 -15 17 -17 -18 18 19 22 -22 -23 -24 24 -26 -27 27 28 -30 -31
leaf_value=22.553225902148657 -3.0380042652289077 -16.234262521178632 -10.159296695391339 44.165501794815071 -10.36333161867582 -7.6946019840240485 -6.6025064323259448 -5.5833653516769415 -4.0972042904634565 -6.3316899414245897 -0.60205024946695085 6.368142372828264 -1.3411785033345223 -5.3758397974751215 4.2088127217509532 -6.720175037384033 3.2378200749556223 -0.89106225729762123 2.3895783451887276 0.054798950082377389 6.9441835339773794 7.2940464285016064 -5.8656585531575338 -3.8929489099317127 0.42111393984099083 -2.9305503989223922 5.9609820308685304 -3.6699214424405784 0.45940109400561346 0.84351120461285811
leaf_weight=28 24 27 24 20 26 20 23 25 28 26 87 26 20 22 22 20 21 944 143 95 22 20 28 36 399 70 25 42 1231 257
leaf_count=28 24 27 24 20 26 20 23 25 28 26 87 26 20 22 22 20 21 944 143 95 22 20 28 36 399 70 25 42 1231 257
internal_value=0 -0.167371 -0.0515657 14.5338 -0.22492 -0.153212 -0.111957 -0.0708659 -0.0326696 -0.000879901 -1.92037 0.0616822 3.01626 0.0219539 0.056891 -2.14341 -0.109286 0.0997882 0.072494 0.685341 1.07781 0.861988 -1.29295 0.639426 0.064088 -0.104752 -0.0255982 0.431749 0.323163 -0.519884
internal_weight=0 3773 3746 44 3702 3676 3656 3633 3608 3580 113 3467 46 3421 3399 65 45 3334 3312 743 620 598 123 578 435 2569 2499 1298 1273 1201
internal_count=3801 3773 3746 44 3702 3676 3656 3633 3608 3580 113 3467 46 3421 3399 65 45 3334 3312 743 620 598 123 578 435 2569 2499 1298 1273 1201
is_linear=0
shrinkage=0.1


Tree=77
num_leaves=31
num_cat=0
split_feature=79 33 115 7 107 87 18 3 9 13 141 77 86 144 63 96 103 75 64 127 105 17 62 72 98 90 106 127 85 105
split_gain=1.5153e+06 378891 2.12554e+06 527801 290398 186334 219103 109902 112312 230085 79092 62088.7 30182.8 93469.5 57463 51771.3 52159.2 38748 71974.9 93754.4 70212.7 80491.5 51279.7 50898.6 39320.6 182707 106867 117304 49097.4 59299.1
threshold=0.95861165551361127 1.1151662765231178e-12 284.50000000000006 1.4427900347443356e-07 0.68129494175644845 4.7602137108087339 49.971170061633721 0.96099288978915942 6.856419226035101e-07 52.336618303874651 0.52326077783167746 1.7912689822415884 178.50000000000003 0.10515307483403447 0.97271973505169673 0.20081274443734112 0.17083333333333336 1.7889946740438554 0.80496271409489484 283.50000000000006 0.61750000000000005 41.37262514594223 0.32297289785030853 0.93242924321691134 1.1268479535144749 0.93561433000688343 0.10835298027930171 305.50000000000006 3.1475429083690263 0.65083333333333349
decision_type=2 2 2 2 2 2 2 2 2 2 2 2 2 2 2 2 2 2 2 2 2 2 2 2 2 2 2 2 2 2
left_child=1 3 -3 4 5 -1 7 8 10 -10 11 12 13 -7 15 17 -17 24 23 -20 -21 -22 -23 -19 28 -26 -27 -28 -14 -30
right_child=-2 2 -4 -5 -6 6 -8 -9 9 -11 -12 -13 14 -15 -16 16 -18 18 19 20 21 22 -24 -25 25 26 27 -29 29 -31
leaf_value=8.8535603274469796 23.177430868148804 -7.9994880934245884 32.944273004077729 -14.772698795318604 -10.724817737249229 -2.6186746346950533 -10.125052842226896 7.2771968080848453 -13.009891364574433 2.1586621707677844 -5.9422556939332383 -5.0250288438797002 -0.15048792293570187 6.4744318879567659 -4.8345405273437505 -0.45193728903929398 -7.1897268295288086 -0.1864516988057982 -8.8863328874111183 1.7073697625266182 -0.10996468853950501 -8.6521426268986286 -2.544226028301098 5.1372012124955653 9.5753793815771751 -0.39716466666484368 8.2789021737647772 -0.90932405193646759 1.7288390205599447 -1.593297249620611
leaf_weight=23 28 32 21 25 26 20 22 20 20 20 23 25 2351 26 25 27 20 176 20 45 50 28 27 20 24 245 33 24 289 66
leaf_count=23 28 32 21 25 26 20 22 20 20 20 23 25 2351 26 25 27 20 176 20 45 50 28 27 20 24 245 33 24 289 66
internal_value=0 -0.172003 8.22351 -0.291617 -0.193639 -0.119011 -0.175613 -0.115213 -0.156236 -5.42561 -0.0970964 -0.0591301 -0.0238208 2.52091 -0.0575549 -0.0228889 -3.31908 0.022703 -0.949232 -2.45498 -1.59747 -3.01383 -5.65371 0.356778 0.140028 1.17756 0.510181 4.41018 0.0150332 1.1112
internal_weight=0 3773 53 3720 3695 3669 3646 3624 3604 40 3564 3541 3516 46 3470 3445 47 3398 366 170 150 105 55 196 3032 326 302 57 2706 355
internal_count=3801 3773 53 3720 3695 3669 3646 3624 3604 40 3564 3541 3516 46 3470 3445 47 3398 366 170 150 105 55 196 3032 326 302 57 2706 355
is_linear=0
shrinkage=0.1


Tree=78
num_leaves=31
num_cat=0
split_feature=77 107 4 117 100 128 29 51 38 141 113 113 141 63 96 94 50 92 49 2 103 124 103 152 46 99 1 7 56 152
split_gain=1.45626e+06 786057 1.01364e+06 600551 500458 257525 297510 101473 120784 117981 101529 152835 63558.5 51380.6 44770.4 85786.9 38698.9 52509.6 46757.2 155318 54230 44493.3 31475.3 30668.9 44979.6 72991.9 64231.2 59390.6 59269.8 59336.2
threshold=1.7912689822415884 0.68129494175644845 4.4293797039590529e-12 0.37028391814267769 0.96323017047029136 -0.32938522418310962 2.09586487511936e-18 1.5066989932774682e-14 4.6166007524598237e-15 0.14857176395479496 0.17907212759143501 0.14104613929849788 0.52326077783167746 0.97271973505169673 0.20081274443734112 -0.10837002926468085 4.0518058600333699e-11 4.6466258966973877 1.1720822524828941e-10 1.2938969265246608e-06 0.17250000000000001 0.16825598400821759 0.26750000000000002 -0.058193823756287309 1.2667938798435602e-13 0.14083333333333337 327183145564.18927 4.1381777032645576e-09 0.13668669637490011 -0.075010019241955952
decision_type=2 2 2 2 2 2 2 2 2 2 2 2 2 2 2 2 2 2 2 2 2 2 2 2 2 2 2 2 2 2
left_child=1 2 4 -3 5 -1 7 8 10 -9 11 12 13 14 16 -16 18 -18 21 -20 -21 22 23 24 26 28 -7 -27 -26 -30
right_child=-2 3 -4 -5 -6 6 -8 9 -10 -11 -12 -13 -14 -15 15 -17 17 -19 19 20 -22 -23 -24 -25 25 27 -28 -29 29 -31
leaf_value=9.3257788185415595 22.721423312915224 -1.8593882215023041 21.382444071769715 -26.365538103580477 -15.922035353183748 6.2441375633080805 -12.003328677586147 -0.45015800094604491 -7.1991516182820012 9.2650073223114031 -7.0139020133586163 6.267680003141102 -5.3480302261269621 -4.6848763744036352 -7.6513558133081965 0.99378991822401685 -0.53119797289371495 6.715150866508484 3.4902944278717047 -10.239488343745471 -2.8753852725028994 3.3730306434325685 -3.4901964040902946 0.12322139956556644 2.9700405305624011 -8.8059373128981822 -0.91868328432882995 -1.655847706244542 -0.61596529131269639 -5.0612585684832405
leaf_weight=29 28 20 22 20 20 21 21 25 24 25 21 38 23 24 22 24 20 20 25 20 20 39 26 2815 40 21 31 26 257 34
leaf_count=29 28 20 22 20 20 21 21 25 24 25 21 38 23 24 22 24 20 20 25 20 20 39 26 2815 40 21 31 26 257 34
internal_value=0 -0.168619 -0.0192074 -14.1125 -0.146083 -0.0605999 -0.134932 -0.0664796 -0.128773 4.40742 -0.0812009 -0.0401443 -0.108473 -0.0738935 -0.0419191 -3.14084 -0.000176572 3.09198 -0.0368243 -2.69292 -6.55744 0.0153348 -0.0246989 0.00306779 -0.783519 -1.16286 1.97399 -4.85057 -0.639227 -1.13535
internal_weight=0 3773 3733 40 3711 3691 3662 3641 3591 50 3567 3546 3508 3485 3461 46 3415 40 3375 65 40 3310 3271 3245 430 378 52 47 331 291
internal_count=3801 3773 3733 40 3711 3691 3662 3641 3591 50 3567 3546 3508 3485 3461 46 3415 40 3375 65 40 3310 3271 3245 430 378 52 47 331 291
is_linear=0
shrinkage=0.1


Tree=79
num_leaves=31
num_cat=0
split_feature=102 35 32 73 77 20 40 122 60 58 38 38 145 73 107 21 61 90 104 47 49 22 89 68 16 153 49 90 124 18
split_gain=1.41751e+06 373068 509360 1.8387e+06 125113 80131.8 119253 66831.6 51572.5 52788.9 103813 59469 96938.7 57187.1 49663 44799.1 33666.1 33469.6 132737 63989.9 76262.1 63796.6 92727.8 86626.8 80664.7 66884.5 60573.9 60519.3 54339.1 51497.6
threshold=0.96360172574030878 4.4736986402424643e-14 1.4966054570011099e-18 92.500000000000014 1.7912689822415884 1.0840117422477208e-10 1.4373178360312009e-14 0.64672276221144298 0.96314834340765099 6.8888482946136903e-20 3.6587994521367145e-15 3.6587994521367145e-15 0.054166666666666675 93.500000000000014 0.34591208874296625 1.9104798739526092e-09 0.78613296980589487 0.97665123054085512 0.46016885268122876 1.6607196970648105e-11 7.745681334713623e-11 7.3009462812369303 25.472729007603768 224.50000000000003 49.659729442997929 34.270661813067029 1.1720822524828941e-10 0.97611468406500446 0.049152822537820245 48.464937508264313
decision_type=2 2 2 2 2 2 2 2 2 2 2 2 2 2 2 2 2 2 2 2 2 2 2 2 2 2 2 2 2 2
left_child=1 2 4 -4 5 6 7 8 9 11 13 15 -13 14 16 17 -11 19 21 20 27 22 -19 -23 -25 26 -26 29 -27 -1
right_child=-2 -3 3 -5 -6 -7 -8 -9 -10 10 -12 12 -14 -15 -16 -17 -18 18 -20 -21 -22 23 -24 24 25 28 -28 -29 -30 -31
leaf_value=-0.088151295100667285 22.417060320717951 9.6919836251359257 12.656363372802735 -27.042917077881949 -6.9156463905617045 4.42524082339727 -7.4719961475242274 -5.0435573259989424 -3.8693766042164395 -1.2936080649495125 8.4995460700988783 0.093010872953078333 -8.312860014127649 4.0578160689427305 -3.6350851903359094 -3.7073019959709863 3.1357949865830914 -3.2887542775131409 6.6015187119736396 3.5051314841376411 -5.0752758102886606 7.3505258369445805 0.16709428757629141 6.7557845524379196 0.28284575607660306 0.11554929044511585 -3.8727374378003576 -4.1859544703834937 4.7124911332130432 -3.6254420788515187
leaf_weight=2051 28 38 20 28 27 39 22 27 35 32 20 34 23 39 33 33 37 105 34 45 33 20 298 21 456 45 38 38 60 42
leaf_count=2051 28 38 20 28 27 39 22 27 35 32 20 34 23 39 33 33 37 105 34 45 33 20 298 21 456 45 38 38 60 42
internal_value=0 -0.16636 -0.266659 -10.5016 -0.133414 -0.0833815 -0.131942 -0.0870733 -0.0496082 -0.0118101 1.75725 -0.0961758 -3.29883 0.800893 -0.444401 -0.0411738 1.08158 -0.00435635 0.452712 -0.227201 -0.304814 0.252272 -0.733313 0.872883 0.663926 0.450355 -0.0368145 -0.23094 2.74237 -0.159134
internal_weight=0 3773 3735 48 3687 3660 3621 3599 3572 3537 161 3376 57 141 102 3319 69 3286 1077 2209 2164 1043 403 640 620 599 494 2131 105 2093
internal_count=3801 3773 3735 48 3687 3660 3621 3599 3572 3537 161 3376 57 141 102 3319 69 3286 1077 2209 2164 1043 403 640 620 599 494 2131 105 2093
is_linear=0
shrinkage=0.1


Tree=80
num_leaves=31
num_cat=0
split_feature=122 82 0 93 59 77 40 9 7 50 139 102 103 150 84 107 105 60 69 57 75 105 120 142 137 46 94 81 98 133
split_gain=1.4485e+06 759050 540483 3.05023e+06 298156 75574.7 52629.5 76122.2 46181.7 46530.7 86747.4 45237.1 32468.8 30793 63595.6 81491.3 91701.3 53178.9 52692.9 51584.8 47836.2 41607.9 43068.6 58707.2 64540.6 43122.9 45220 41629.9 102865 132401
threshold=0.64672276221144298 0.95805255569186987 1.1680818686188409e-12 0.19083333333333338 4.6535552796308069e-19 1.7912689822415884 1.6205176768640348e-14 7.8049919590158931e-07 7.6092973262154196e-08 4.0518058600333699e-11 1.3720219341017137 0.95975617813888892 0.26750000000000002 0.66583333333333339 1.1436443215364476 0.3367207975857533 0.62916666666666676 -0.34502324475309099 189.50000000000003 3.8935406957541881e-20 1.7808482645074455 0.65916666666666679 0.054166666666666675 0.062916886406849365 34.649897926148519 8.6017017435722911e-12 -0.13098061814345349 0.60828383148056642 1.0947676514903495 0.21572393602914139
decision_type=2 2 2 2 2 2 2 2 2 2 2 2 2 2 2 2 2 2 2 2 2 2 2 2 2 2 2 2 2 2
left_child=1 2 4 -4 5 6 7 8 9 11 -11 12 13 21 15 19 -17 -16 -19 -15 -18 22 27 24 25 -24 -27 28 -1 -30
right_child=-2 -3 3 -5 -6 -7 -8 -9 -10 10 -12 -13 -14 14 17 16 20 18 -20 -21 -22 -23 23 -25 -26 26 -28 -29 29 -31
leaf_value=0.61757763914747699 22.660791226795741 -16.874986645027445 39.592730661800935 -9.4550598293542869 -10.291399921219925 -5.4839497841321503 -4.1760731881664652 5.5750134011109678 -4.5422106939813371 7.4952570085940158 -0.86206961826041906 -4.7173239253816153 -3.337745186487834 -1.3468769189046355 -4.5429923765037374 -9.9215378927147917 0.58781588033393584 5.4048840713500983 0.12779279218779668 4.0662161040306088 -5.4218125985218926 -1.2392213543174122 -0.81515074680591459 -0.047271320287173041 1.4499310181538265 -3.1050490751862529 -8.8472520192464188 -0.0151073172669242 9.2081152482466262 0.69844264773333942
leaf_weight=918 28 27 21 32 29 26 31 24 23 23 27 21 30 147 23 23 27 20 351 20 26 212 29 535 30 32 24 968 33 41
leaf_count=918 28 27 21 32 29 26 31 24 23 23 27 21 30 147 23 23 27 20 351 20 26 212 29 535 30 32 24 968 33 41
internal_value=0 -0.168169 -0.0477516 9.97897 -0.19165 -0.111712 -0.0733177 -0.0380569 -0.075655 -0.046798 2.9823 -0.0899475 -0.0620958 -0.033686 -0.661686 -1.93398 -4.64857 0.123005 0.412272 -0.698602 -2.3603 0.10807 0.217505 -0.487888 -2.53771 -3.94512 -5.56599 0.451437 0.906694 4.4933
internal_weight=0 3773 3746 53 3693 3664 3638 3607 3583 3560 50 3510 3489 3459 637 243 76 394 371 167 53 2822 2610 650 115 85 56 1960 992 74
internal_count=3801 3773 3746 53 3693 3664 3638 3607 3583 3560 50 3510 3489 3459 637 243 76 394 371 167 53 2822 2610 650 115 85 56 1960 992 74
is_linear=0
shrinkage=0.1


Tree=81
num_leaves=31
num_cat=0
split_feature=79 83 40 58 58 122 58 57 77 63 7 50 47 69 98 113 108 98 90 38 71 71 56 141 135 21 54 25 106 53
split_gain=1.34662e+06 358366 2.50479e+06 1.59876e+06 249403 127069 122724 175574 61040.2 41259.1 56084.2 68859.3 40773.2 36662.4 34569.7 48736.5 41714.6 39057.4 99799.5 59361.3 40257.6 36472.2 131742 86600 58115.1 54988.7 91541.4 64064.4 54060.5 74978.1
threshold=0.95861165551361127 0.18680264198572197 1.0947418869287117e-14 5.8970672271898522e-18 5.961815929532393e-20 0.64672276221144298 1.0277689358348842e-18 2.5676879330353991e-19 1.7912689822415884 0.97271973505169673 7.9486357708051185e-08 5.9132277353379477e-11 3.0848181606538255e-11 263.50000000000006 1.3995254369636263 0.051726237249780253 0.085770428948120439 1.2415678229586768 0.96966860777352115 1.3761696672519885e-16 0.95496956148419754 0.93674288026705044 0.96064510251214086 0.17421535395326951 1.6823400353855453 1.7558954991801409e-09 1.5287589391893763e-11 7.1954295657914207 0.010308640266733204 1.4118896091423138e-11
decision_type=2 2 2 2 2 2 2 2 2 2 2 2 2 2 2 2 2 2 2 2 2 2 2 2 2 2 2 2 2 2
left_child=1 3 4 5 13 6 7 8 9 10 11 12 14 -3 17 16 -16 20 -19 -20 21 25 23 24 -23 -1 -27 -28 -26 -30
right_child=-2 2 -4 -5 -6 -7 -8 -9 -10 -11 -12 -13 -14 -15 15 -17 -18 18 19 -21 -22 22 -24 -25 28 26 27 -29 29 -31
leaf_value=-0.12017035320291286 21.849336688859125 3.428743569939225 36.395504515511647 -28.515909476280214 -12.240688138008117 -7.1314260207689735 7.5069260619935534 -9.5033574163913723 -4.9355548024177551 -3.6471951484680178 4.4175012152109829 -5.6528607975352898 4.4615642201900485 -1.7357864518250741 -1.2957376175456579 -3.7918961664377635 3.9462688848376275 5.9156854987908636 1.8842388785698199 -4.072007052103678 -3.4376999398640224 4.0986656042662535 -6.9097424496775091 6.3337362006858546 2.0648488222843127 0.010121333319693804 -9.250745344161988 -1.657461938261986 0.18897530828361159 -4.8681956064316543
leaf_weight=2254 28 27 21 20 20 26 21 20 26 32 28 22 20 28 63 59 20 39 44 27 35 44 23 27 147 64 25 20 540 31
leaf_count=2254 28 27 21 20 20 26 21 20 26 32 28 22 20 28 63 59 20 39 44 27 35 44 23 27 147 64 25 20 540 31
internal_value=0 -0.162147 5.86944 -0.319621 -2.67786 -0.165417 -0.115536 -0.159877 -0.107825 -0.0726055 -0.0402196 -0.0758407 -0.0406039 0.799528 -0.0666129 -1.59456 -0.0326035 -0.00126086 1.85158 -0.380812 -0.0647539 -0.0275718 0.550608 0.768083 0.570875 -0.226252 -2.41991 -5.87595 0.354687 -0.0855821
internal_weight=0 3773 96 3677 75 3657 3631 3610 3590 3564 3532 3504 3482 55 3462 142 83 3320 110 71 3210 3175 812 789 762 2363 109 45 718 571
internal_count=3801 3773 96 3677 75 3657 3631 3610 3590 3564 3532 3504 3482 55 3462 142 83 3320 110 71 3210 3175 812 789 762 2363 109 45 718 571
is_linear=0
shrinkage=0.1


Tree=82
num_leaves=31
num_cat=0
split_feature=86 82 9 140 7 122 40 77 37 119 38 76 81 39 81 122 52 151 142 121 107 130 125 33 28 109 88 113 127 78
split_gain=1.3672e+06 802800 732098 2.43071e+06 147718 82929.4 63871.2 63167.8 45538.9 87412.6 32239.2 79355.7 45743.6 38346.7 43596.3 47132.2 42000.2 57307.5 39501.5 30527 63370.6 59385.7 160905 57455.9 91683.9 87573.7 62483.6 45398.9 44529.7 73727.4
threshold=95.500000000000014 0.95805255569186987 1.2819876873269997e-06 0.42020556365271117 8.4081122411966441e-08 0.64672276221144298 1.6205176768640348e-14 1.7912689822415884 2.1612055743572411e-14 21622.000000000004 3.5121592495633189e-15 0.50750000000000017 0.59783349113975637 4.3443361908092685e-15 0.60125005112995955 0.067344088101544311 6.0099067700100523e-12 284.50000000000006 0.07022674572829278 0.042682695555480862 0.33840789674263477 0.36445884898770325 0.33519840850508381 2.4661614243317421e-14 367.69409790911612 10857.500000000002 108.11391737791924 0.039206202598465072 244.50000000000003 0.10030500693735084
decision_type=2 2 2 2 2 2 2 2 2 2 2 2 2 2 2 2 2 2 2 2 2 2 2 2 2 2 2 2 2 2
left_child=-1 2 4 -4 5 6 7 8 10 -10 13 12 -12 16 15 -15 19 -18 -17 20 21 27 -23 -22 25 26 -25 -2 29 -21
right_child=1 -3 3 -5 -6 -7 -8 -9 9 -11 11 -13 -14 14 -16 18 17 -19 -20 28 23 22 -24 24 -26 -27 -28 -29 -30 -31
leaf_value=22.015675146239147 -0.11399654763964338 -17.344927720670348 -8.6724976221720382 38.53078954696656 -6.5664204491509341 -5.9883378922939308 -4.6105049779338225 -5.0611532211303718 7.1816062479019172 -1.0244923088285658 -2.8861428523063659 -6.6864458580017088 3.8772607862949373 0.045474848231753795 -0.49520147861066194 8.0788280464354028 -5.4091199987074914 0.89786974525451668 2.674631233434928 5.307556567721897 -0.0759514623011152 10.381614599227905 0.16064445594075458 -4.5046364198128384 -0.74832718580961233 -1.8956685811281204 -11.882741748202932 -4.8081448095185415 0.11794252451034073 -0.0099036396270798105
leaf_weight=28 1090 27 24 20 36 24 31 25 25 27 20 25 20 37 66 21 34 25 38 45 162 20 67 24 120 47 22 21 1568 62
leaf_count=28 1090 27 24 20 36 24 31 25 25 27 20 25 20 37 66 21 34 25 38 45 162 20 67 24 120 47 22 21 1568 62
internal_value=0 -0.163382 -0.0395424 12.7835 -0.191951 -0.129354 -0.0907442 -0.0519426 -0.0170206 2.92075 -0.0602475 -2.26675 0.495559 -0.0189034 1.48328 2.84348 -0.0924907 -2.73667 4.59816 -0.0444592 -0.360816 -0.00570268 2.51029 -1.49528 -2.57478 -4.93148 -8.0333 -0.202725 0.252633 2.22641
internal_weight=0 3773 3746 44 3702 3666 3642 3611 3586 52 3534 65 40 3469 162 96 3307 59 59 3248 1573 1198 87 375 213 93 46 1111 1675 107
internal_count=3801 3773 3746 44 3702 3666 3642 3611 3586 52 3534 65 40 3469 162 96 3307 59 59 3248 1573 1198 87 375 213 93 46 1111 1675 107
is_linear=0
shrinkage=0.1


Tree=83
num_leaves=31
num_cat=0
split_feature=77 107 4 117 102 31 7 51 150 38 141 78 121 34 144 120 94 99 130 125 144 110 127 127 22 61 42 2 80 142
split_gain=1.38812e+06 725584 618423 493086 430252 225198 190203 64205.2 119620 105968 56988.7 47241 54637.1 65777.8 27653.9 27930.5 45884 32901.4 81213 332193 85209.1 163414 61613.7 48093.3 86887.3 62868.9 52522.7 66228.5 117579 94152.8
threshold=1.7912689822415884 0.68129494175644845 4.4293797039590529e-12 0.37028391814267769 0.96360172574030878 6.0683578779319165e-17 9.2069544686427907e-08 1.5066989932774682e-14 0.61250000000000016 4.6166007524598237e-15 0.52326077783167746 0.22421245397452863 0.19163141961485239 1.467148356077833e-19 -0.11466581633447451 0.054166666666666675 -0.034295479237375928 0.064166666666666691 0.36131775405815825 0.330587217188481 0.128208907895277 0.21417726860618311 244.50000000000003 279.50000000000006 7.4001245780814662 0.93461976463726237 8.6358717003724413e-13 1.2851560402634247e-06 0.038038334794138588 0.080397493949291479
decision_type=2 2 2 2 2 2 2 2 2 2 2 2 2 2 2 2 2 2 2 2 2 2 2 2 2 2 2 2 2 2
left_child=1 2 4 -3 5 6 7 9 -9 10 11 12 14 -14 -1 17 -17 18 -16 -20 -21 -22 -19 24 25 -24 -25 28 -28 -30
right_child=-2 3 -4 -5 -6 -7 -8 8 -10 -11 -12 -13 13 -15 15 16 -18 22 19 20 21 -23 23 26 -26 -27 27 -29 29 -31
leaf_value=3.0425443221782817 22.183460153014 -2.4586079597473147 16.695520253614948 -24.664141228199007 -14.747777423858643 10.046320954236117 -9.5911025744108933 -1.2923970794677735 8.5914128139615062 -6.718339198331039 -5.0129467694655716 -4.2660914774124441 -0.26486931585747264 7.3835327625274658 -0.076822145932071567 -1.2687546903862152 0.41501991089961543 3.6711741186851676 14.076004218513317 -1.6851178061436205 10.940156419277193 0.35863217424463345 -0.071887204629823204 -0.21714119192149847 -4.8253063394312274 -5.9056091165542606 -0.31228984489634232 -0.076857883881017997 7.6915381634676905 0.97382131674710459
leaf_weight=29 28 20 22 20 20 22 21 25 24 24 23 26 23 22 333 426 261 43 22 68 20 54 242 1538 57 20 74 206 54 34
leaf_count=29 28 20 22 20 20 22 21 25 24 24 23 26 23 22 333 426 261 43 22 68 20 54 242 1538 57 20 74 206 54 34
internal_value=0 -0.164627 -0.0210774 -13.5614 -0.120179 -0.0409179 -0.101403 -0.0467746 3.54865 -0.095726 -0.0512665 -0.0191385 0.0121777 3.47435 -0.0325789 -0.0584128 -0.629067 0.0833737 0.820265 2.64179 0.870291 3.2185 -0.0781055 -0.150563 -1.28699 -0.517209 0.0396368 1.1128 2.62558 5.09606
internal_weight=0 3773 3733 40 3711 3691 3669 3648 49 3599 3575 3552 3526 45 3481 3452 687 2765 497 164 142 74 2268 2225 319 262 1906 368 162 88
internal_count=3801 3773 3733 40 3711 3691 3669 3648 49 3599 3575 3552 3526 45 3481 3452 687 2765 497 164 142 74 2268 2225 319 262 1906 368 162 88
is_linear=0
shrinkage=0.1


Tree=84
num_leaves=31
num_cat=0
split_feature=102 25 146 1 1 69 77 3 98 49 32 80 7 122 84 38 116 144 83 64 143 61 7 124 7 110 0 33 20 7
split_gain=1.33695e+06 341731 1.97196e+06 1.2378e+06 199218 451794 130050 115260 134348 76459.5 86059.2 114777 48536.5 46786.3 31088.8 31975.1 69476.7 26287.5 33542.3 76486.8 58164.8 165996 55927.1 83407.5 59242.2 58436.8 53555.9 57236.7 50764.9 87130
threshold=0.96360172574030878 7.4601725085088004 0.23719947949648737 276223497.58143443 489780675.08856577 340.50000000000006 1.7912689822415884 0.95817678973887288 3.5699231557631959 2.0084566682784704e-10 3.6170152745040431e-19 0.039007325372361137 6.7066884350609387e-08 0.64672276221144298 1.4637120340360668 3.6587994521367145e-15 -0.0078246918827970559 0.41797728680421398 0.087446915415505297 0.6275804252418572 1.0569245790639206 0.90933440403767551 4.5619939689476274e-08 0.094749170742518943 4.3214273140550113e-08 0.2124569383385618 1.8317093607696253e-13 1.9978260367649101e-13 7.574575245423296e-11 4.6656696011967366e-08
decision_type=2 2 2 2 2 2 2 2 2 2 2 2 2 2 2 2 2 2 2 2 2 2 2 2 2 2 2 2 2 2
left_child=1 3 -3 -1 5 -5 7 8 9 10 12 -12 13 14 15 17 -17 18 -6 -20 22 -22 23 24 26 -26 27 -21 -24 -30
right_child=-2 2 -4 4 6 -7 -8 -9 -10 -11 11 -13 -14 -15 -16 16 -18 -19 19 20 21 -23 28 -25 25 -27 -28 -29 29 -31
leaf_value=24.763806307315829 21.770760577065605 -30.245018519525946 8.4006717901076051 -17.676674792880103 -0.16743296725409373 1.0862562063968544 -7.0061654037899448 6.8668612480163578 -8.2593575501441965 4.9042419597987212 -10.052597153186799 0.66078333854675297 4.881103248596192 -4.4592963953812923 3.6355153112955714 1.5942902704079946 -5.5723309857230037 -0.90961957049110664 6.2303093158680465 1.143266658683618 0.79679547128628714 10.793620775938034 2.5502857529705967 -1.6926363953791168 -6.6297361564636237 0.92310808159056179 3.8526765847963 -4.3186419985511089 5.4570185590673379 -0.60997315188481782
leaf_weight=20 28 23 31 21 2016 33 27 24 20 31 20 20 20 24 23 24 31 299 23 150 98 20 145 285 20 21 63 22 27 192
leaf_count=20 28 23 31 21 2016 33 27 24 20 31 20 20 20 24 23 24 31 299 23 150 98 20 145 285 20 21 63 22 27 192
internal_value=0 -0.161564 -8.05953 -0.0468854 -0.181033 -6.21044 -0.0917089 -0.0401085 -0.0862319 -0.0404953 -0.08376 -4.69591 -0.0310949 -0.0593016 -0.0287726 -0.0533007 -2.44508 -0.0143927 0.0724576 0.526134 0.400347 2.49117 0.133626 -0.492714 0.746337 -2.76121 1.35829 0.44465 1.09895 0.138012
internal_weight=0 3773 54 3719 3699 54 3645 3618 3594 3574 3543 40 3503 3483 3459 3436 55 3381 3082 1066 1043 118 925 561 276 41 235 172 364 219
internal_count=3801 3773 54 3719 3699 54 3645 3618 3594 3574 3543 40 3503 3483 3459 3436 55 3381 3082 1066 1043 118 925 561 276 41 235 172 364 219
is_linear=0
shrinkage=0.1


Tree=85
num_leaves=31
num_cat=0
split_feature=141 82 103 19 140 17 34 4 31 108 77 102 44 32 149 127 84 140 153 123 68 113 95 87 49 103 65 1 63 90
split_gain=1.35443e+06 702290 545836 260670 1.73988e+06 954675 580530 123208 99799.5 106216 79101.1 42657.1 39794.3 37666.4 25656.1 59090.5 47930.2 36417.5 36055.9 32412.2 37194.2 30416.2 45869.4 72905.6 43684.3 40323.8 71964.5 49702.4 33933.2 29568.9
threshold=0.52326077783167746 0.95805255569186987 0.27250000000000002 55.39028203547133 -0.0046087739346720715 56.839634292065242 7.0840329003506015e-18 2.0727111015270988e-12 6.5038434334185738e-18 0.10108376633803624 1.7912689822415884 0.95975617813888892 7.0644657881641623e-12 3.3838648480619086e-19 -0.32534274310979677 299.50000000000006 1.1280517551408149 -0.42998415844272481 33.661589652340837 0.0054439003301117268 338.50000000000006 0.072478666546268694 -0.14876305759931088 5.5416774387210408 1.4045563780849306e-10 0.12750000000000003 0.64916423427785663 10835714291.449457 0.97271973505169673 0.88264336164794921
decision_type=2 2 2 2 2 2 2 2 2 2 2 2 2 2 2 2 2 2 2 2 2 2 2 2 2 2 2 2 2 2
left_child=1 2 3 5 -5 6 7 8 10 -10 11 12 13 14 15 18 -17 -16 19 -1 -21 24 23 -23 28 -24 27 -27 29 -19
right_child=-2 -3 -4 4 -6 -7 -8 -9 9 -11 -12 -13 -14 -15 17 16 -18 21 -20 20 -22 22 25 -25 -26 26 -28 -29 -30 -31
leaf_value=2.382888527313868 21.912553223541806 -16.232657545584221 16.429282341003418 12.300141061782838 -23.698608740342078 19.845371198654178 -17.154976549148561 5.7501569048398071 -8.6734262636729653 -0.038589844621461013 -5.557755137406863 -4.5150855859120691 3.9030654494579027 -3.8913506641387943 3.4988465124560939 -7.1767175765264604 -1.7470904265013005 3.2156994257723137 2.7602490997314457 -0.51504496192293503 -5.0125323978337377 -2.6913696238288174 -0.30580831781684698 4.104789505193108 4.5857064203782514 -3.9009736511442399 -8.5811926698684697 1.4078629934068385 -3.6318272292613987 0.1101184527510891
leaf_weight=30 28 27 20 25 29 24 20 36 28 29 26 21 26 25 31 21 72 31 40 112 22 27 91 38 22 45 20 29 24 2782
leaf_count=30 28 27 20 25 29 24 20 36 28 29 26 21 26 25 31 21 72 31 40 112 22 27 91 38 22 45 20 29 24 2782
internal_value=0 -0.162616 -0.0467885 -0.135227 -7.03252 -0.0337961 -0.16458 -0.0709175 -0.129258 -4.28026 -0.0623251 -0.0216066 0.00544702 -0.0238245 0.00430703 -0.88406 -2.97314 0.0883341 0.0683131 -0.588257 -1.25344 0.0543277 -1.00341 1.28177 0.14682 -1.80631 -3.25893 -1.82048 0.112398 0.144343
internal_weight=0 3773 3746 3726 54 3672 3648 3628 3592 57 3535 3509 3488 3462 3437 297 93 3140 204 164 134 3109 250 65 2859 185 94 74 2837 2813
internal_count=3801 3773 3746 3726 54 3672 3648 3628 3592 57 3535 3509 3488 3462 3437 297 93 3140 204 164 134 3109 250 65 2859 185 94 74 2837 2813
is_linear=0
shrinkage=0.1


Tree=86
num_leaves=31
num_cat=0
split_feature=63 9 7 141 49 43 4 77 9 17 102 39 144 47 103 32 149 107 2 92 68 122 34 121 21 78 123 62 60 8
split_gain=1.34482e+06 739016 814133 172290 164211 228649 115943 86350.1 44439.8 53851.4 49272.1 30452.4 55665.3 31818.5 28891.4 29743 35875 60978 43063.3 50491.1 44417.5 56046.6 78469 61848 35031 102319 51523.2 66658.2 51372 57526.7
threshold=0.97542750338497342 1.8335700910234837e-06 1.2352610546584618e-07 0.52326077783167746 2.6603964585049714e-10 5.3953132075791217e-12 2.9022980504961621e-12 1.7912689822415884 8.4034469274173007e-07 56.392259638037835 0.95975617813888892 6.0516963722124227e-15 0.14571696568919501 2.7411305014153195e-11 0.072500000000000023 2.1226179172466542e-19 -0.1787985854971996 0.33999015811212269 1.2851560402634247e-06 4.6466258966973877 292.50000000000006 0.13374031836207309 4.5333678491595587e-19 0.086238652481858816 1.6781435259978665e-09 0.12766643020089166 0.041835544180255653 0.14412846862660664 0.94752028781434749 0.87039077736130743
decision_type=2 2 2 2 2 2 2 2 2 2 2 2 2 2 2 2 2 2 2 2 2 2 2 2 2 2 2 2 2 2
left_child=1 2 3 4 5 6 7 8 9 10 11 13 -13 14 -1 24 17 -17 19 -18 -20 23 -23 -22 -16 26 27 -26 29 -28
right_child=-2 -3 -4 -5 -6 -7 -8 -9 -10 -11 -12 12 -14 -15 15 16 18 -19 20 -21 21 22 -24 -25 25 -27 28 -29 -30 -31
leaf_value=-1.4153798150414563 21.83475099716868 -17.298190475463866 17.254241773817274 -8.2851585388183597 7.2521376784642548 -10.839574289470912 -7.7110012221336364 -5.710236589996903 4.5529156503223236 -4.3524891925269165 -4.5413440744082134 -0.7051513734071152 6.5083764386177068 -3.7347250751827077 0.06285702712487215 1.1168291980879648 1.558767813805378 -5.8049688911437993 -3.0920444961923823 7.9263296508789072 0.86108134187184848 7.3169153796775008 1.2859627745411499 -5.3812358288537894 -1.6092554812431334 4.1739896778017282 -0.34497312892567034 4.1638805809020996 -7.8662172754605608 -5.4868626077969873
leaf_weight=139 28 25 27 26 30 20 20 27 21 29 24 23 20 23 2708 35 33 20 26 20 65 28 94 21 100 32 55 25 21 36
leaf_count=139 28 25 27 26 30 20 20 27 21 29 24 23 20 23 2708 35 33 20 26 20 65 28 94 21 100 32 55 25 21 36
internal_value=0 -0.162039 -0.047737 -0.173282 -0.116203 -0.176516 -0.118009 -0.0761162 -0.0338368 -0.0607649 -0.025686 0.00506762 2.64998 -0.0276044 -0.00294739 0.0562054 0.939418 -1.40019 1.38777 3.96162 0.804809 1.29192 2.67012 -0.663205 -0.0452587 -1.13365 -1.85029 -0.454628 -3.40796 -2.37913
internal_weight=0 3773 3748 3721 3695 3665 3645 3625 3598 3577 3548 3524 43 3481 3458 3319 342 55 287 53 234 208 122 86 2977 269 237 125 112 91
internal_count=3801 3773 3748 3721 3695 3665 3645 3625 3598 3577 3548 3524 43 3481 3458 3319 342 55 287 53 234 208 122 86 2977 269 237 125 112 91
is_linear=0
shrinkage=0.1


Tree=87
num_leaves=31
num_cat=0
split_feature=79 35 55 81 31 40 141 32 77 103 57 102 150 153 102 146 102 112 76 120 94 20 98 136 75 75 38 142 63 113
split_gain=1.31416e+06 267837 373290 194589 295920 83980.4 69688.8 57684.3 49720.7 35969.1 34173.2 25665.4 24330.2 32233.7 25227.5 107913 35590 53943 24903 23470.8 41322.3 38558.8 35998.2 40231.7 33945.3 77630.5 43917.7 31752.1 67533.7 49630.9
threshold=0.95861165551361127 4.4736986402424643e-14 2.9597232052578372e-10 1.0796707084870845 1.5957911121668787e-17 1.4373178360312009e-14 0.52326077783167746 5.3257615193836931e-19 1.7912689822415884 0.26916666666666672 1.253692407086246e-19 0.95975617813888892 0.69416666666666671 32.905557204363461 -0.46599143692466921 0.24310925831351396 -0.40061387662743919 0.22258405420760333 0.57083333333333341 0.054166666666666675 -0.035950737527756911 9.4399060817867249e-11 0.97362406648156419 2.2239545584135922 1.7574546696530486 1.7448694009393149 2.9787089726314921e-15 0.059264440979281977 0.084749204485227478 -0.065740560361944825
decision_type=2 2 2 2 2 2 2 2 2 2 2 2 2 2 2 2 2 2 2 2 2 2 2 2 2 2 2 2 2 2
left_child=1 2 3 4 5 6 7 8 9 10 11 12 14 -14 15 -1 17 -16 -15 -18 21 24 23 -22 25 -21 27 29 -29 -26
right_child=-2 -3 -4 -5 -6 -7 -8 -9 -10 -11 -12 -13 13 18 16 -17 19 -19 -20 20 22 -23 -24 -25 26 -27 -28 28 -30 -31
leaf_value=2.8176216793060305 21.584369952338083 8.0839801592704585 -12.186691841712365 -9.9997126770019538 10.733548614501954 -5.8463329756775728 -5.6297969351644106 -4.8010700390889092 -4.4309559666193454 -3.7478442210417526 3.290846483169064 -3.6160285806655885 -2.7325480766492349 3.3003010010719303 5.1471161900144642 -7.4461067494891937 0.14648951105375935 -1.1615981153819872 -1.4339024810791017 -0.10564736735146002 5.0533844858407981 -5.4261669650673872 -0.19329725400759623 -0.13707511488880431 0.61922219594319661 -5.9837860987736633 3.163814316834173 3.8015053489628965 -1.064530536067267 -5.7641818572734964
leaf_weight=20 28 39 26 20 25 26 23 26 26 26 31 20 73 20 33 21 2624 23 25 53 32 20 182 28 21 39 31 34 177 29
leaf_count=20 28 39 26 20 25 26 23 26 26 26 31 20 73 20 33 21 2624 23 25 53 32 20 182 28 21 39 31 34 177 29
internal_value=0 -0.160181 -0.246288 -0.162563 -0.109216 -0.183218 -0.142734 -0.107814 -0.0738044 -0.0420004 -0.0147515 -0.0439879 -0.0234884 -1.43489 0.0259758 -2.43941 0.0563669 2.55604 0.670188 0.0135591 -0.526394 -1.1454 0.506984 2.63117 -0.92244 -2.59747 -0.394692 -0.81735 -0.28043 -3.08315
internal_weight=0 3773 3734 3708 3688 3663 3637 3614 3588 3562 3536 3505 3485 118 3367 41 3326 56 45 3270 646 404 242 60 384 92 292 261 211 50
internal_count=3801 3773 3734 3708 3688 3663 3637 3614 3588 3562 3536 3505 3485 118 3367 41 3326 56 45 3270 646 404 242 60 384 92 292 261 211 50
is_linear=0
shrinkage=0.1


Tree=88
num_leaves=31
num_cat=0
split_feature=77 82 2 101 34 141 58 63 57 17 29 44 9 32 150 57 128 128 140 113 138 106 20 49 76 63 152 16 97 56
split_gain=1.33915e+06 684751 489452 3.02965e+06 270674 118610 169255 90783.4 83934.6 56955.6 38661.9 66210.6 39271.9 61052.7 56272.9 50877.9 65312.8 57414.6 139527 32479.2 62531.7 58921.6 73669.2 47106.9 46093.5 45944.1 36660.9 29662.6 27500.8 26670
threshold=1.7912689822415884 0.95805255569186987 2.3053628985258934e-06 -0.033257778264850789 1.0356271905780248e-17 0.52326077783167746 2.3086520562959719e-19 0.97542750338497342 1.5709542603113355e-19 56.392259638037835 7.2182742090281498e-19 6.0629147063122649e-13 5.5355520528136318e-07 2.6591918843186254e-19 0.63083333333333347 2.6064693942032423e-20 0.14578986988357853 0.33254519485024597 -0.2299687316857397 0.0781212204969602 0.24916666666666668 0.14017462608251927 3.2292772925435442e-11 1.297534076966503e-10 0.56916666666666671 0.41838752587231681 0.26690731792785199 52.108645994914518 5.8831657317162334 0.95740263991142494
decision_type=2 2 2 2 2 2 2 2 2 2 2 2 2 2 2 2 2 2 2 2 2 2 2 2 2 2 2 2 2 2
left_child=1 2 4 -4 5 6 7 8 9 10 12 -12 13 19 -15 -14 27 18 -18 23 21 22 -21 29 25 -22 -26 -17 -27 -1
right_child=-2 -3 3 -5 -6 -7 -8 -9 -10 -11 11 -13 15 14 -16 16 17 -19 -20 20 24 -23 -24 -25 26 28 -28 -29 -30 -31
leaf_value=-0.0066952832145285484 21.788669297524862 -16.334229636192322 -13.64166835502342 34.669367393493651 -10.352305694726798 -6.8432410185153678 8.6796985875476498 -6.8368115806579599 -6.540994222164155 -5.1171729147434242 0.96372297178953892 -7.1732689547538762 5.6007142880788221 -0.00084641456604003904 -7.3298992807214916 -5.2348000192642212 -1.992620531320572 -0.57769381801287334 8.7205573351152488 -1.9888734935328019 5.8766760440099812 0.33355837992165949 -8.5799900148596091 4.9197011280059817 -5.0591955282471401 2.6079756549426492 0.65075771990029718 -0.020324210325876873 -1.8241163355963572 1.5654078152828985
leaf_weight=2955 28 26 27 25 26 26 22 20 20 22 20 20 26 20 22 20 20 39 31 43 21 37 28 20 22 28 23 24 28 112
leaf_count=2955 28 26 27 25 26 26 22 20 20 22 20 20 26 20 22 20 20 39 31 43 21 37 28 20 22 28 23 24 28 112
internal_value=0 -0.161697 -0.0494777 9.58479 -0.185061 -0.113012 -0.0649788 -0.118109 -0.0807928 -0.0447124 -0.0133569 -3.10477 0.0217828 -0.0511271 -3.83987 1.55243 0.766948 2.31061 4.51931 -0.00315378 -1.14955 -2.90203 -4.58819 0.0822595 0.401831 1.88777 -2.14077 -2.39054 0.39193 0.0507144
internal_weight=0 3773 3747 52 3695 3669 3643 3621 3601 3581 3559 40 3519 3359 42 160 134 90 51 3317 230 108 71 3087 122 77 45 44 56 3067
internal_count=3801 3773 3747 52 3695 3669 3643 3621 3601 3581 3559 40 3519 3359 42 160 134 90 51 3317 230 108 71 3087 122 77 45 44 56 3067
is_linear=0
shrinkage=0.1


Tree=89
num_leaves=31
num_cat=0
split_feature=86 82 9 140 63 77 57 86 141 9 17 31 40 120 148 147 115 97 56 148 69 125 20 115 103 83 124 102 133 132
split_gain=1.3286e+06 614188 617239 2.07587e+06 161850 107627 91367.4 180115 43679 38866.2 65361.4 52891.5 30519.9 23227.2 41191.6 82460.5 53506.1 54172.2 52906.8 48121.3 47222.8 43076.1 40492.9 54290.7 40366.2 41917 39015.5 38835.4 76742.4 70999.8
threshold=95.500000000000014 0.95805255569186987 1.2819876873269997e-06 0.42020556365271117 0.97542750338497342 1.7912689822415884 1.5709542603113355e-19 229.50000000000003 0.52326077783167746 7.2703414772437599e-07 56.392259638037835 6.5038434334185738e-18 1.3272661780078942e-14 0.047500000000000007 0.27197141308583367 0.29587044248045846 286.50000000000006 5.9198934945276678 0.95791110866075779 -0.02926625793975797 412.50000000000006 0.310878569841394 8.176654262973008e-11 309.50000000000006 0.17083333333333336 0.072196614411180041 0.033841000213514875 0.29307004876286719 0.3801846959335683 0.63916666666666677
decision_type=2 2 2 2 2 2 2 2 2 2 2 2 2 2 2 2 2 2 2 2 2 2 2 2 2 2 2 2 2 2
left_child=-1 2 4 -4 5 6 8 -8 9 10 11 12 13 -2 16 -16 19 18 20 -15 27 -20 23 -22 26 -26 -21 29 -29 -18
right_child=1 -3 3 -5 -6 -7 7 -9 -10 -11 -12 -13 -14 14 15 -17 17 -19 21 24 22 -23 -24 -25 25 -27 -28 28 -30 -31
leaf_value=21.702621347563607 0.22013192263681716 -15.1893397225274 -8.1066545645395927 35.515400524139402 -8.9467863196418396 -6.681739469528198 -9.9039418933568175 2.0022415921092036 -4.3824931445329085 4.000028821825981 -5.7383416497707369 -4.0526121780276299 3.262081710223494 0.65053710621946004 5.0392103588258905 0.092683902327661161 -0.81993473777139325 4.2148649082183836 6.0076568906957455 1.644787234067917 2.1458519775291971 -0.40468366622924806 -4.7683476306954216 -4.2131755557060249 -9.0181071812456306 -2.9125396210214367 -4.1381045013666151 0.5888419590890408 -4.1703801491776025 -6.4081882321834573
leaf_weight=28 2050 27 24 20 21 25 27 24 23 24 20 32 29 34 37 378 251 25 22 20 29 20 49 25 22 23 28 402 37 25
leaf_count=28 2050 27 24 20 21 25 27 24 23 24 20 32 29 34 37 378 251 25 22 20 29 20 49 25 22 23 28 402 37 25
internal_value=0 -0.161058 -0.0527392 11.7216 -0.192682 -0.14274 -0.0980261 -4.30103 -0.0385661 -0.0106738 -0.0377274 -0.00550238 0.0314364 0.00449117 -0.305294 0.5337 -0.649348 -0.373899 -0.507293 -2.56882 -0.68502 2.95416 -2.68688 -0.798142 -3.74578 -5.89748 -1.72857 -0.39664 0.187723 -1.32612
internal_weight=0 3773 3746 44 3702 3681 3656 51 3605 3582 3558 3538 3506 3477 1427 415 1012 885 860 127 818 42 103 54 93 45 48 715 439 276
internal_count=3801 3773 3746 44 3702 3681 3656 51 3605 3582 3558 3538 3506 3477 1427 415 1012 885 860 127 818 42 103 54 93 45 48 715 439 276
is_linear=0
shrinkage=0.1


Tree=90
num_leaves=31
num_cat=0
split_feature=79 83 40 58 49 49 31 130 77 118 122 103 96 80 142 56 68 63 102 49 33 112 2 85 28 69 131 35 10 51
split_gain=1.32312e+06 284203 1.86011e+06 1.44492e+06 201442 102579 82892.9 85614.2 88139.4 84153.2 48650.7 37362.8 35166.2 39804 56155.8 42180.6 34923.7 33878.7 30794.1 30027.7 32697.7 51305.3 48272.3 37506.2 41097 39026.9 33309.3 29973.7 98595.1 61626.4
threshold=0.95861165551361127 0.18680264198572197 1.0947418869287117e-14 5.8970672271898522e-18 2.0813389360629223e-11 2.415815388192661e-10 1.5957911121668787e-17 0.56181010448107449 1.7912689822415884 0.51574747136444599 0.64672276221144298 0.26750000000000002 0.16991570756219102 0.038624806601163124 0.11863644622908662 0.78111021874811881 256.50000000000006 0.97271973505169673 0.95975617813888892 1.6353758467675669e-10 4.0416205903159907e-13 0.21968819212363291 1.2286625604064578e-06 3.1194404865754977 386.66634946625123 398.50000000000006 -0.045111889890693029 1.1523808889082722e-14 1.5447353578415015e-10 7.1024974551930992e-15
decision_type=2 2 2 2 2 2 2 2 2 2 2 2 2 2 2 2 2 2 2 2 2 2 2 2 2 2 2 2 2 2
left_child=1 3 4 5 16 6 7 8 9 10 11 12 17 -14 -15 -16 -3 18 19 20 27 22 -22 -23 25 -25 -26 -1 -29 -30
right_child=-2 2 -4 -5 -6 -7 -8 -9 -10 -11 -12 -13 13 14 15 -17 -18 -19 -20 -21 21 23 -24 24 26 -27 -28 28 29 -31
leaf_value=0.0099477955664125182 21.657861483097079 4.1764764036451067 31.516574232918874 -27.106417047977448 -10.749371285438539 -5.3229298880225739 5.6382090682983401 -5.6480281335966929 -6.0135655574798585 5.0499337792396553 -4.6856264466824742 -3.6457249704106105 -5.3448570814132701 3.3769920390585195 -0.21306768626936023 -6.0176052320571181 -1.0102368916439659 -3.4501639808927269 -3.8692348861694335 3.1641917490190075 -1.2802433834075928 3.6981153750419615 -7.8715277886390682 2.69842738944131 -5.7169451255798345 -2.7843893161416058 -0.38174603743986651 7.6715941974094939 -2.1838806756905149 1.3763481729746985
leaf_weight=2812 28 21 21 20 20 38 25 28 25 32 23 29 25 23 31 21 34 28 20 31 25 20 20 37 25 20 22 21 63 213
leaf_count=2812 28 21 21 20 20 38 25 28 25 32 23 29 25 23 31 21 34 28 20 31 25 20 20 37 25 20 22 21 63 213
internal_value=0 -0.160726 5.21061 -0.300962 -2.15506 -0.154364 -0.100094 -0.14001 -0.0967609 -0.0549874 -0.101541 -0.0712963 -0.0413112 -1.88925 -0.737387 -2.55721 0.970145 0.0137363 0.0428709 0.0665162 0.0372215 -1.31741 -4.2097 -0.267788 -1.03046 0.774632 -3.21962 0.110857 1.06627 0.563687
internal_weight=0 3773 96 3677 75 3657 3619 3594 3566 3541 3509 3486 3457 100 75 52 55 3357 3329 3309 3278 169 45 124 104 57 47 3109 297 276
internal_count=3801 3773 96 3677 75 3657 3619 3594 3566 3541 3509 3486 3457 100 75 52 55 3357 3329 3309 3278 169 45 124 104 57 47 3109 297 276
is_linear=0
shrinkage=0.1


Tree=91
num_leaves=31
num_cat=0
split_feature=122 82 103 19 146 24 9 9 32 77 84 72 92 127 128 99 31 0 17 152 106 57 9 112 147 94 154 34 69 36
split_gain=1.3357e+06 664444 401268 234928 1.49038e+06 795045 384159 80755.3 136393 64081.3 28769.5 61444.3 63121.2 56732 78033.1 68605.7 58131.5 115558 55107.7 54610.8 53567.1 55944.5 73714.4 50539.5 51397 49317.7 42726.8 37235.9 35128.7 84256.4
threshold=0.64672276221144298 0.95805255569186987 0.27250000000000002 55.39028203547133 0.23719947949648737 7.5481270893482568 1.0319472697082579e-06 7.8049919590158931e-07 4.9539316734912194e-19 1.7912689822415884 1.103766918957912 0.94305150575383012 4.6481100210320765 289.50000000000006 0.42310000199530801 0.089166666666666686 2.288739053040763e-18 3.0899907089122564e-13 54.20743932902915 0.15653924663203614 -0.063504822575994616 9.5742034957996124e-21 4.2610595153119434e-07 0.22723004156505192 0.30372895268554373 -0.20913924182027269 0.52258787274919716 2.7192138410524205e-19 175.50000000000003 1.1152319607831001e-15
decision_type=2 2 2 2 2 2 2 2 2 2 2 2 2 2 2 2 2 2 2 2 2 2 2 2 2 2 2 2 2 2
left_child=1 2 3 5 -5 6 7 8 9 10 11 13 27 14 15 23 17 20 -18 -17 -15 22 25 24 -1 -22 -12 -13 29 -28
right_child=-2 -3 -4 4 -6 -7 -8 -9 -10 -11 26 12 -14 16 -16 19 18 -19 -20 -21 21 -23 -24 -25 -26 -27 28 -29 -30 -31
leaf_value=5.3562191818211531 21.760554504394534 -15.792527675628662 13.735547611826943 -25.961580206000288 7.6354363691422256 17.742011589050293 -13.973287162780762 5.9643743731758816 -7.4733435239791879 -5.007773408522973 -4.8160063314437869 3.1421716179166523 6.8697340780070846 3.077525251252311 -2.2998228119479287 2.0648101256174201 3.081860419159586 -6.8304889526860464 -1.3207675096534548 7.7326114952564247 4.1966698624870995 -2.6188311876995223 5.6701552527291437 -1.3349126993526113 0.39650309110681214 -0.67278041135888855 6.8369385133186986 -2.0374375654303511 -0.24933463792257179 -0.06830649393707959
leaf_weight=37 28 27 21 23 31 25 20 22 25 26 20 35 28 42 45 34 88 29 42 34 22 112 21 55 48 381 24 23 2366 67
leaf_count=37 28 27 21 23 31 25 20 22 25 26 20 35 28 42 45 34 88 29 42 34 22 112 21 55 48 381 24 23 2366 67
internal_value=0 -0.161488 -0.0488247 -0.126535 -6.6744 -0.0302168 -0.152078 -0.0758441 -0.112716 -0.0613001 -0.025103 0.40664 2.97055 0.183916 1.47594 2.29281 -0.259613 -0.67062 1.65947 4.89871 -0.361561 -0.631042 -0.105965 1.02709 2.55544 -0.406954 -0.212651 1.08819 -0.175179 1.75286
internal_weight=0 3773 3746 3725 54 3671 3646 3626 3604 3579 3553 1076 86 990 253 208 737 607 130 68 578 536 424 140 85 403 2477 58 2457 91
internal_count=3801 3773 3746 3725 54 3671 3646 3626 3604 3579 3553 1076 86 990 253 208 737 607 130 68 578 536 424 140 85 403 2477 58 2457 91
is_linear=0
shrinkage=0.1


Tree=92
num_leaves=31
num_cat=0
split_feature=77 107 4 146 100 58 0 122 154 85 32 40 45 46 103 58 103 74 88 59 92 10 132 73 103 7 9 111 57 57
split_gain=1.23825e+06 530704 641358 476315 412610 232897 99164.3 73052.6 70601.9 78060.2 64271.3 63005.9 37229.5 35294.5 30936 28938 43588.6 39702.8 37914.2 30419.5 72080.4 62150 64211 53331.5 57693.3 61238.1 80691.4 55847.8 54087.4 50363
threshold=1.7912689822415884 0.68129494175644845 4.4293797039590529e-12 0.26325725653256887 0.96323017047029136 1.0277689358348842e-18 1.079187497433124e-12 0.64672276221144298 0.99348734065932498 3.1264683125616251 7.8647026095043803e-19 1.6205176768640348e-14 2.2534731102569219e-11 2.2428024478236636e-11 0.26750000000000002 5.4790380135926897e-20 0.14416666666666669 0.92920907527003438 116.6023662101871 2.060977140155066e-20 4.6581263016699204 2.7121624496971319e-10 0.60750000000000004 114.50000000000001 0.16250000000000001 5.0879978133937557e-08 4.5839562543281725e-07 2515.5000000000005 1.4515376579307942e-20 1.2392949775700425e-20
decision_type=2 2 2 2 2 2 2 2 2 2 2 2 2 2 2 2 2 2 2 2 2 2 2 2 2 2 2 2 2 2
left_child=1 2 4 -3 5 6 7 8 10 -10 11 12 13 14 15 19 17 -17 -18 29 23 -22 -23 24 27 26 -26 -21 -29 -1
right_child=-2 3 -4 -5 -6 -7 -8 -9 9 -11 -12 -13 -14 -15 -16 16 18 -19 -20 20 21 22 -24 -25 25 -27 -28 28 -30 -31
leaf_value=-0.058662335570882101 20.951706553356988 -0.70045462131500247 16.991038027676669 -22.525088565349581 -14.458198554515839 10.202219154482538 -6.9695984408968972 -5.6960703476615571 -0.12734673553042941 -8.0551695618940453 5.0623464361429216 -4.8381124397118889 4.3132670664787289 -3.4876698724154771 -3.4895610656738287 1.3587216987286683 1.4018917915297717 -2.6643074817541574 6.2834634817563568 -0.3447496753579391 -7.0422296631336216 3.1246934652328493 -4.0560706167510068 4.3722071770578621 -1.6617617364852659 0.58211647233237396 -7.5529379583174183 6.0870598967870073 0.49946749268508539 1.1873198318812583
leaf_weight=2288 28 20 22 20 20 22 21 23 27 23 25 27 20 29 25 77 41 36 26 232 30 20 33 24 93 69 31 30 41 378
leaf_count=2288 28 20 22 20 20 22 21 23 27 23 25 27 20 29 25 77 41 36 26 232 30 20 33 24 93 69 31 30 41 378
internal_value=0 -0.155486 -0.0327182 -11.6128 -0.13364 -0.0560216 -0.117532 -0.0780874 -0.0424423 -3.77415 0.00974934 -0.0258323 0.0110486 -0.0135144 0.0154869 0.0408931 1.2753 0.0770487 3.29623 -0.0270767 -0.668493 -3.4051 -1.34635 -0.231688 -0.454457 -1.8058 -3.13456 0.406297 2.86042 0.118
internal_weight=0 3773 3733 40 3711 3691 3669 3648 3625 50 3575 3550 3523 3503 3474 3449 180 113 67 3269 603 83 53 520 496 193 124 303 71 2666
internal_count=3801 3773 3733 40 3711 3691 3669 3648 3625 50 3575 3550 3523 3503 3474 3449 180 113 67 3269 603 83 53 520 496 193 124 303 71 2666
is_linear=0
shrinkage=0.1


Tree=93
num_leaves=31
num_cat=0
split_feature=125 126 102 83 78 95 7 77 87 9 122 7 40 103 121 119 94 13 108 121 22 106 74 4 69 76 110 115 62 142
split_gain=1.27755e+06 548090 956965 254945 359578 432609 706410 164510 126103 184892 84589.5 77684.2 77182.7 40012 30256.9 87759 29871.5 52039.6 36360.6 30106.8 45393.4 36967.6 66657.3 48040.8 42105.7 41211.5 45448.1 42724.5 40890.1 58186.6
threshold=0.78845091296823433 0.51978111592150411 0.96360172574030878 0.23084870312059247 0.22421245397452863 -0.2535566230637471 1.4427900347443356e-07 1.7912689822415884 4.7602137108087339 1.0319472697082579e-06 0.64672276221144298 7.9486357708051185e-08 1.6205176768640348e-14 0.27250000000000002 0.19163141961485239 21804.500000000004 -0.22365672124721772 45.99795050357789 0.03088368491969579 0.10398318324832921 7.4697939955847135 0.074904052076180991 0.86398168999077596 7.0937069281611474e-13 398.50000000000006 0.47250000000000009 -0.01275532017581755 283.50000000000006 0.15838086257143863 0.071641560257339268
decision_type=2 2 2 2 2 2 2 2 2 2 2 2 2 2 2 2 2 2 2 2 2 2 2 2 2 2 2 2 2 2
left_child=1 2 3 4 5 -1 7 8 -7 10 11 12 13 14 16 -16 17 18 -10 21 -21 28 -23 24 25 -24 -27 -28 29 -18
right_child=-2 -3 -4 -5 -6 6 -8 -9 9 -11 -12 -13 -14 -15 15 -17 19 -19 -20 20 -22 22 23 -25 -26 26 27 -29 -30 -31
leaf_value=12.047144893942209 21.281624254158565 14.599550285220147 -20.591527524201766 10.602296320958573 -12.941080956025557 7.3374427441669559 -16.967000511169434 -8.1834917869567878 -2.3428147561020323 -9.6788392686843885 -5.9537309557199478 4.6247923605971861 -5.2735693318503252 -4.4620744055509567 7.5214886933565142 -1.4476682274291912 0.1460657169858178 -4.6215859526082097 2.896627836961013 -0.40626812225649733 -4.1332378615651812 -3.3971698804696402 5.9001232706982165 5.4886753967830115 -0.72787522582446829 -1.5799674302339555 -0.86795838356018074 3.1066242497508267 0.3085904472382015 -1.6286961977025705
leaf_weight=29 28 25 23 22 22 23 25 25 27 20 24 36 28 20 20 24 455 38 26 493 35 30 23 28 85 40 35 119 1662 311
leaf_count=29 28 25 23 22 22 23 25 25 27 20 24 36 28 20 20 24 455 38 26 493 35 30 23 28 85 40 35 119 1662 311
internal_value=0 -0.157934 -0.25637 -0.130811 -0.194577 -0.118396 -0.215001 -0.0995335 -0.0434261 -0.0908583 -0.0369781 0.00319219 -0.0443579 -0.00217465 0.0236724 2.62922 -0.00997724 -1.79741 0.227478 0.0390746 -0.653321 0.170203 1.11587 1.52614 1.15876 1.89776 1.42325 2.20331 0.0299888 -0.574497
internal_weight=0 3773 3748 3725 3703 3681 3652 3627 3602 3579 3559 3535 3499 3471 3451 44 3407 91 53 3316 528 2788 360 330 302 217 194 154 2428 766
internal_count=3801 3773 3748 3725 3703 3681 3652 3627 3602 3579 3559 3535 3499 3471 3451 44 3407 91 53 3316 528 2788 360 330 302 217 194 154 2428 766
is_linear=0
shrinkage=0.1


Tree=94
num_leaves=31
num_cat=0
split_feature=102 35 4 125 59 77 40 122 103 102 32 103 2 9 129 67 67 99 94 150 147 63 87 62 106 103 21 105 20 56
split_gain=1.37511e+06 264541 352611 318474 213143 123999 66646.1 46453.8 34049.4 24618.8 25035.5 24667.6 26763.4 75535.7 50716.3 25665.4 35413.6 30327.5 76915.2 156438 110027 64637.8 61886.7 62321.4 61675.1 60938.1 36932.7 37506.6 35104.8 34633.9
threshold=0.96360172574030878 4.4736986402424643e-14 3.2367496057891815e-12 0.55939694008017715 4.6535552796308069e-19 1.7912689822415884 1.4373178360312009e-14 0.64672276221144298 0.26916666666666672 0.95168290318870985 1.638925657513787e-21 0.072500000000000023 1.5636273607130892e-06 6.415671794147702e-07 0.18295163966546438 0.79935277935637228 0.80581158528668284 0.064166666666666691 -0.14106385438481917 0.58750000000000013 0.17004873757987571 0.034217089169025876 5.8482416183759254 0.28762532729794871 0.071741275542658786 0.12916666666666668 6.8551297533675191e-10 0.55750000000000011 5.2356401025284589e-11 0.96009679619658883
decision_type=2 2 2 2 2 2 2 2 2 2 2 2 2 2 2 2 2 2 2 2 2 2 2 2 2 2 2 2 2 2
left_child=1 2 3 4 5 6 7 8 9 11 -11 -1 13 15 -14 -13 -17 18 19 -18 -21 -20 23 25 -22 -23 -25 -28 -29 -19
right_child=-2 -3 -4 -5 -6 -7 -8 -9 -10 10 -12 12 14 -15 -16 16 17 29 21 20 24 22 -24 26 -26 -27 27 28 -30 -31
leaf_value=-1.292530357354396 22.079222277232581 8.1376497503958252 -11.634828941910357 -9.1543494181755261 8.6216138219460845 -7.0179304287983832 -5.2324952964782723 -4.5310901786970055 -3.5602020819981899 -0.30513388633728034 3.9183459125459197 -2.806541790813208 6.0377509737014776 -5.4009337370212265 0.60495853076047712 3.5182222366333011 10.010990861892701 -0.077673062724895603 -2.7135164050088414 6.5598522639274597 0.95940223259803581 8.7521744894981381 -2.7641260030476946 -1.6647512237940516 -5.8707998895645144 0.9458871877193451 -1.8844472974538804 2.7993883962261266 -0.41616150587797168 -2.5918923969247514
leaf_weight=148 28 38 27 39 28 26 25 23 27 25 32 32 20 26 122 29 25 2534 69 25 39 20 46 56 20 20 32 116 48 56
leaf_count=148 28 38 27 39 28 26 25 23 27 25 32 32 20 26 122 29 25 2534 69 25 39 20 46 56 20 20 32 116 48 56
internal_value=0 -0.163853 -0.248313 -0.165401 -0.0698525 -0.136692 -0.0872 -0.0513692 -0.022484 0.00449859 2.06594 -0.0292374 0.0268248 -0.0329155 1.37014 0.0111541 0.0399153 0.00743914 0.707511 3.06671 0.999964 0.0756848 0.645078 1.18214 -1.35592 4.84903 0.600099 1.2472 1.85825 -0.132035
internal_weight=0 3773 3735 3708 3669 3641 3615 3590 3567 3540 57 3483 3335 3193 142 3167 3135 3106 516 109 84 407 338 292 59 40 252 196 164 2590
internal_count=3801 3773 3735 3708 3669 3641 3615 3590 3567 3540 57 3483 3335 3193 142 3167 3135 3106 516 109 84 407 338 292 59 40 252 196 164 2590
is_linear=0
shrinkage=0.1


Tree=95
num_leaves=31
num_cat=0
split_feature=141 82 0 103 34 58 32 77 29 75 81 1 89 105 118 98 86 108 56 7 147 97 95 107 87 103 98 91 69 53
split_gain=1.2619e+06 536096 436628 2.27432e+06 354869 120712 68202.1 66985.9 37576.4 78342.5 26484.9 61145.9 48690.4 108445 144015 52558.4 49390.1 85949.2 81554.8 82111.1 79766.2 71720.9 56877.3 64437.5 74395.9 56533.9 48145 44991.7 43810.3 47647
threshold=0.52326077783167746 0.95805255569186987 1.1680818686188409e-12 0.18083333333333337 1.0356271905780248e-17 2.3086520562959719e-19 5.3257615193836931e-19 1.7912689822415884 7.2182742090281498e-19 1.662018159320086 0.60828383148056642 598562869.50662553 25.797188089096274 0.61916666666666675 0.38600404785190801 0.99507567240800043 233.50000000000003 0.085770428948120439 0.95740263991142494 4.9616730699347307e-08 0.26119227232878889 5.8740637366925998 -0.073582886362453109 0.33036312558488268 5.5625520365626464 0.17083333333333336 1.0778326328301111 3.123590215066065 284.50000000000006 1.1774177110452281e-11
decision_type=2 2 2 2 2 2 2 2 2 2 2 2 2 2 2 2 2 2 2 2 2 2 2 2 2 2 2 2 2 2
left_child=1 2 4 -4 5 6 7 8 10 -10 11 -1 16 14 15 -14 17 21 22 -20 -19 -13 23 26 -25 -26 -18 -15 -12 -30
right_child=-2 -3 3 -5 -6 -7 -8 -9 9 -11 28 12 13 27 -16 -17 18 20 19 -21 -22 -23 -24 24 25 -27 -28 -29 29 -31
leaf_value=4.6186769693128529 21.150824978734768 -14.19737833870782 -12.153458045079159 29.284181439435045 -11.400173696449826 7.122367450465326 -5.6960338852622296 -5.1688364459918104 1.2706187872659593 -7.367198158445813 0.3231569832571124 1.0098558078493391 4.1510577879846098 -1.8947504852088575 10.244150924140758 0.73156219736629768 -1.1801971021185511 9.195899661727573 8.5190836381912245 -0.4339098430815197 0.5608503103256226 -4.4411038960729332 0.042349881678819659 -0.24389878543647558 -9.5696712684631358 -3.2653047344901349 2.8097127928878325 0.73809828742238504 -1.1192205699618565 0.49793469908357668
leaf_weight=31 28 27 26 27 28 23 22 26 21 21 627 175 64 115 22 151 362 23 20 21 20 28 601 37 25 33 33 149 777 238
leaf_count=31 28 27 26 27 28 23 22 26 21 21 627 175 64 115 22 151 362 23 20 21 20 28 601 37 25 33 33 149 777 238
internal_value=0 -0.156963 -0.0557645 8.95628 -0.185101 -0.0994194 -0.145026 -0.111291 -0.0747034 -3.04829 -0.0395427 0.213639 0.140964 0.9852 2.538 1.74946 -0.165975 1.11828 -0.445062 3.9334 5.1796 0.257999 -0.609606 -1.40925 -3.74759 -5.9827 -0.846863 -0.408787 -0.334048 -0.740026
internal_weight=0 3773 3746 53 3693 3665 3642 3620 3594 42 3552 1910 1879 501 237 215 1378 246 1132 41 43 203 1091 490 95 58 395 264 1642 1015
internal_count=3801 3773 3746 53 3693 3665 3642 3620 3594 42 3552 1910 1879 501 237 215 1378 246 1132 41 43 203 1091 490 95 58 395 264 1642 1015
is_linear=0
shrinkage=0.1


Tree=96
num_leaves=31
num_cat=0
split_feature=79 90 55 9 141 1 4 77 63 9 28 101 84 138 48 56 148 60 119 125 73 68 125 1 75 0 40 154 13 73
split_gain=1.32019e+06 226296 881393 579009 168119 60024.2 236601 54498.8 45053.5 57915.9 51885.9 102038 24862.3 27013.7 25183.5 37420.2 105109 38546 33408.5 47192.8 45019.9 51952.4 43301.2 40206.6 35464.8 37476 32955 34485.3 89792.1 38548.8
threshold=0.95861165551361127 0.99559890463257716 2.9597232052578372e-10 1.2819876873269997e-06 0.52326077783167746 406936589.52092022 1.2958742224162141e-12 1.7912689822415884 0.97542750338497342 7.8049919590158931e-07 405.74696526941904 -0.018962678717679971 1.4637120340360668 0.27583333333333343 8.7218570420236726e-15 0.087615320252492704 0.46935430573010739 0.40002916540691008 16055.500000000002 0.30543272948231609 104.50000000000001 338.50000000000006 0.27409887858969534 9744368659.5571537 1.7793909526587219 1.3787295424899541e-14 1.3272661780078942e-14 0.986959739839672 47.883301879273496 120.50000000000001
decision_type=2 2 2 2 2 2 2 2 2 2 2 2 2 2 2 2 2 2 2 2 2 2 2 2 2 2 2 2 2 2
left_child=1 2 3 4 5 6 -1 8 9 10 12 -12 13 14 -7 16 18 -17 -16 22 21 -21 -20 -22 -24 -26 27 29 -29 -19
right_child=-2 -3 -4 -5 -6 7 -8 -9 -10 -11 11 -13 -14 -15 15 17 -18 26 19 20 23 -23 24 -25 25 -27 -28 28 -30 -31
leaf_value=3.3989072653380306 21.633804900997454 8.7960269710847321 -18.229962638572413 16.461036005474273 -8.2037342277856986 -2.1122538212686779 -11.440660013471332 -4.6519527664551372 -4.7901728829741481 5.3355114108324058 -8.2071468716082361 0.27474015580641259 3.5048230886459351 -3.5241139888763429 3.9939010944366462 -1.7097469898370599 6.2903088634664366 -0.043064037541437096 -1.1158233958211812 1.9752032723029456 -4.6155313176077772 -3.350252999430118 5.3425564820116218 -0.80038485466887099 3.5258094836365097 -0.65032977405048564 4.0183638191223148 -5.4969558489031911 0.41184048546829088 2.4604950974857998
leaf_weight=22 28 28 27 21 26 56 21 26 20 20 23 37 20 22 25 143 33 2588 44 90 37 23 33 109 44 42 20 41 69 63
leaf_count=22 28 28 27 21 26 56 21 26 20 20 23 37 20 22 25 143 33 2588 44 90 37 23 33 109 44 42 20 41 69 63
internal_value=0 -0.160548 -0.227513 -0.0967795 -0.190833 -0.134081 -3.84832 -0.0900587 -0.05713 -0.0307032 -0.0608335 -2.97665 -0.0108767 -0.0310702 -0.00886012 0.0257433 0.84407 -0.108592 0.441998 0.231578 -0.607352 0.891261 1.5646 -1.76724 2.55568 1.4863 -0.0262601 -0.0555584 -1.79053 0.0164321
internal_weight=0 3773 3745 3718 3697 3671 43 3628 3602 3582 3562 60 3502 3482 3460 3404 480 2924 447 422 259 113 163 146 119 86 2781 2761 110 2651
internal_count=3801 3773 3745 3718 3697 3671 43 3628 3602 3582 3562 60 3502 3482 3460 3404 480 2924 447 422 259 113 163 146 119 86 2781 2761 110 2651
is_linear=0
shrinkage=0.1


Tree=97
num_leaves=31
num_cat=0
split_feature=63 9 7 141 49 4 77 46 73 57 3 130 138 87 94 153 148 148 154 117 3 60 73 115 26 45 80 116 134 84
split_gain=1.22692e+06 738753 644591 136910 118240 165053 67608 49546.1 139235 40444.2 32294.2 61068.8 24513.6 30927.1 43532.3 32353.7 25530.1 67419.7 61694.2 49503.1 41686.2 74591.4 51630.1 50149.3 50015.5 43544 63484 63566 47294.7 53136.4
threshold=0.97542750338497342 1.8335700910234837e-06 1.2352610546584618e-07 0.52326077783167746 2.6603964585049714e-10 2.4641258251979437e-12 1.7912689822415884 2.2428024478236636e-11 91.500000000000014 1.253692407086246e-19 0.94711668809510385 0.36553442730494884 0.2141666666666667 5.3306364072482175 -0.13623451954464005 32.306440081814436 0.096896454316060046 0.10605619776793902 0.66211655478592657 0.066333518842312797 -0.12285993364808222 0.13720792193491677 81.500000000000014 334.50000000000006 6.2528977324779946 9.927984909151255e-14 0.041592729361431761 -0.003588759319692532 2.3064929464850601 1.1196608342004619
decision_type=2 2 2 2 2 2 2 2 2 2 2 2 2 2 2 2 2 2 2 2 2 2 2 2 2 2 2 2 2 2
left_child=1 2 3 4 5 6 7 9 -9 10 12 -12 -1 14 -14 -16 19 -18 -19 -15 21 -21 -23 24 -22 -26 28 -28 -27 -30
right_child=-2 -3 -4 -5 -6 -7 -8 8 -10 -11 11 -13 13 16 15 -17 17 18 -20 20 23 22 -24 -25 25 26 27 -29 29 -31
leaf_value=-1.2523251780611 20.855616457121712 -17.287879724502563 15.35488440902145 -7.3833607893723716 6.1511563825607301 -7.8008450976439896 -5.0790060548870652 -9.3697661120976719 1.4019006269318719 3.5262295391410592 0.81034268428539402 -5.7370597498757503 5.512117630502452 3.02319894451648 -0.2324123155416512 3.9420685966809597 4.4145743924218257 -4.9324323147535329 0.16635459602143327 6.3092155985210256 -5.4436621367931366 4.3253452164786204 -1.3012347549149028 3.4341816676987542 3.4774361714072848 -1.2232834325451583 -1.0505692477226256 -8.4207796118476175 -0.70805740040360077 2.5211020321731112
leaf_weight=151 28 25 27 26 30 28 27 21 28 32 29 28 23 40 82 24 37 24 2115 23 24 21 73 27 23 523 25 22 132 83
leaf_count=151 28 25 27 26 30 28 27 21 28 32 29 28 23 40 82 24 37 24 2115 23 24 21 73 27 23 523 25 22 132 83
internal_value=0 -0.154773 -0.040491 -0.152202 -0.101319 -0.152499 -0.0936172 -0.0563304 -3.21453 -0.012873 -0.0449646 -2.40593 -0.0062046 0.0504543 1.56845 0.712753 -0.0108934 0.182353 0.109145 -0.424776 -0.566087 1.20474 -0.0442328 -0.807281 -0.944925 -0.811299 -0.936956 -4.50045 -0.710013 0.538548
internal_weight=0 3773 3748 3721 3695 3665 3637 3610 49 3561 3529 57 3472 3321 129 106 3192 2176 2139 1016 976 117 94 859 832 808 785 47 738 215
internal_count=3801 3773 3748 3721 3695 3665 3637 3610 49 3561 3529 57 3472 3321 129 106 3192 2176 2139 1016 976 117 94 859 832 808 785 47 738 215
is_linear=0
shrinkage=0.1


Tree=98
num_leaves=31
num_cat=0
split_feature=77 107 4 54 102 63 58 57 31 23 129 141 148 84 72 88 80 147 123 147 86 118 63 117 93 91 69 107 60 89
split_gain=1.27193e+06 558911 586957 476009 362770 205159 404770 154603 77470.2 56224.7 97916.5 46712.2 21394.7 52119 118284 50706.9 65947.8 52349.7 46541.2 67478.6 51656.8 46735.9 45051.4 41255.4 40794.2 38605.5 37560.8 62993.7 39755.9 79295.3
threshold=1.7912689822415884 0.68129494175644845 4.4293797039590529e-12 2.109898210520321e-13 0.96360172574030878 0.97542750338497342 1.0277689358348842e-18 1.855766096280437e-19 9.8809453233261752e-18 7.4505634483097287 0.19926811938755537 0.52326077783167746 0.096896454316060046 1.1104727324021322 0.95238263083362973 114.25896622043523 0.038783200454721133 0.31844574807098797 -0.030043819975472053 0.29587044248045846 236.50000000000003 0.41359312887151928 -0.19525469911045534 0.066333518842312797 0.2141666666666667 3.1271386605352514 169.50000000000003 0.32540514655139013 0.94795407415956034 25.535674670476226
decision_type=2 2 2 2 2 2 2 2 2 2 2 2 2 2 2 2 2 2 2 2 2 2 2 2 2 2 2 2 2 2
left_child=1 2 4 -3 5 6 7 8 9 11 -11 12 23 14 15 18 -17 -18 25 20 -20 -21 -15 24 -1 -14 27 -24 -28 -30
right_child=-2 3 -4 -5 -6 -7 -8 -9 -10 10 -12 -13 13 22 -16 16 17 -19 19 21 -22 -23 26 -25 -26 -27 28 -29 29 -31
leaf_value=-0.26724195934477307 21.234763032197954 -1.0065939354896547 16.254168337041683 -22.824220595359805 -13.559731464385989 -9.6833652713082063 14.189753341674805 -6.5066362735387449 5.9064990802244708 -8.7848206362128263 -0.34609979025342247 -4.484354290754899 0.2672720887444236 3.9703652484076368 8.5324798901875809 7.3403182931568312 -0.06144010093477037 4.8536153977917094 6.8287316260337834 0.79173444918527902 1.2797224520468244 -2.8094130593433717 -0.88946751139380709 -0.41685051980666271 6.0432996511459356 -5.4764361534118651 0.02794292014030661 6.7675884451184958 -6.3932562517268323 -0.67052635736139132
leaf_weight=21 28 20 22 20 20 22 20 37 22 20 44 23 22 28 21 23 72 31 25 98 51 57 22 1155 20 25 1604 21 28 179
leaf_count=21 28 20 22 20 20 22 20 37 22 20 44 23 22 28 21 23 72 31 25 98 51 57 22 1155 20 25 1604 21 28 179
internal_value=0 -0.157586 -0.0315985 -11.9154 -0.128146 -0.0553655 0.00236574 -0.0753947 -0.0095154 -0.0457695 -2.9832 0.00754742 0.0370404 0.214981 1.21519 0.834833 2.49893 1.41785 0.0805995 0.664232 3.10505 -0.532559 -0.0108893 -0.306194 2.81107 -2.78789 -0.0710161 2.85002 -0.140373 -1.44462
internal_weight=0 3773 3733 40 3711 3691 3669 3649 3612 3590 64 3526 3503 2307 425 404 126 103 278 231 76 155 1882 1196 41 47 1854 43 1811 207
internal_count=3801 3773 3733 40 3711 3691 3669 3649 3612 3590 64 3526 3503 2307 425 404 126 103 278 231 76 155 1882 1196 41 47 1854 43 1811 207
is_linear=0
shrinkage=0.1


Tree=99
num_leaves=31
num_cat=0
split_feature=141 82 103 68 49 0 1 63 59 77 40 40 33 89 69 53 103 34 18 151 84 140 34 69 47 155 112 140 140 154
split_gain=1.22004e+06 558281 409704 234299 838585 286625 349458 127674 151909 86038.4 42907.2 37717.4 20617.7 37547.6 31021.3 21609.6 52054.8 47517.9 46235.9 77670.4 43160.5 60719.6 35951.9 59324.9 49109.8 43760.4 73527.5 30639.7 51778.8 30237.5
threshold=0.52326077783167746 0.95805255569186987 0.27250000000000002 390.50000000000006 3.7561928328581e-10 1.716727328599536e-12 331270956.60763186 0.97542750338497342 2.9228651374042217e-19 1.7912689822415884 1.6205176768640348e-14 1.3272661780078942e-14 6.6152268669698284e-13 25.826957647279627 389.50000000000006 1.6170882118911222e-11 0.17416666666666669 3.6556706009304089e-19 48.690902699056643 279.50000000000006 1.1280517551408149 0.021377577454846811 3.0188304306516749e-19 402.50000000000006 7.5302678785489126e-12 0.22990213834812681 0.22697618303788544 -0.45578535968129502 -0.2299687316857397 0.98558632031934545
decision_type=2 2 2 2 2 2 2 2 2 2 2 2 2 2 2 2 2 2 2 2 2 2 2 2 2 2 2 2 2 2
left_child=1 2 3 4 5 6 -1 8 9 10 11 12 15 -14 -15 17 -17 18 22 -20 21 -19 29 25 -25 26 -24 -22 -29 -8
right_child=-2 -3 -4 -5 -6 -7 7 -9 -10 -11 -12 -13 13 14 -16 16 -18 20 19 -21 27 -23 23 24 -26 -27 -28 28 -30 -31
leaf_value=-10.562696839682758 20.797060156294279 -14.482324213451811 14.223318853378297 8.5297650602556043 -19.235354477944583 9.9978708948407871 0.179752288430618 -7.8409258825438357 8.4593356739907044 -5.8023332018118641 -4.4312562335621228 4.3290797877311702 -5.3969765281677251 2.3658357262611389 -2.950138420859973 -0.37207226877006727 -4.8043987430375203 6.2665463786255309 -7.0399300403594971 0.39916577041149143 4.2500367200374605 1.020680448256041 -2.0429882796187151 -8.1089159893989571 -1.7921356528997423 -4.1897730374336239 4.1778384912955131 -2.456959617989404 1.078963679075241 -1.4028810144174757
leaf_weight=32 28 27 20 31 23 28 2442 21 21 26 22 20 20 23 21 307 29 36 25 32 20 57 38 20 32 20 38 56 159 127
leaf_count=32 28 27 20 31 23 28 2442 21 21 26 22 20 20 23 21 307 29 36 25 32 20 57 38 20 32 20 38 56 159 127
internal_value=0 -0.154338 -0.0510665 -0.127687 -0.20032 -0.0810923 -0.158538 -0.0663635 -0.0208982 -0.0707819 -0.0287333 -0.00123318 -0.0259637 -1.80435 -0.171334 0.00714176 -0.754624 0.0896541 -0.0449292 -2.8636 1.22787 3.05134 0.0142037 -1.50134 -4.22167 -0.0278245 1.06743 0.506239 0.157979 0.101514
internal_weight=0 3773 3746 3726 3695 3672 3644 3612 3591 3570 3544 3522 3502 64 44 3438 336 3102 2774 57 328 93 2717 148 52 96 76 235 215 2569
internal_count=3801 3773 3746 3726 3695 3672 3644 3612 3591 3570 3544 3522 3502 64 44 3438 336 3102 2774 57 328 93 2717 148 52 96 76 235 215 2569
is_linear=0
shrinkage=0.1


end of trees

feature_importances:
rsam|first_location_of_maximum__permutation_entropy__dimension_3__tau_1=70
rsam|quantile|q_0.9__standard_deviation=67
rsam|quantile|q_0.7__benford_correlation=65
rsam|spkt_welch_density|coeff_5__cid_ce__normalize_False=59
rsam|spkt_welch_density|coeff_5__maximum=49
rsam|quantile|q_0.8__spkt_welch_density__coeff_8=41
rsam|mean_change__maximum=41
rsam|ar_coefficient|coeff_7|k_10__quantile__q_0.9=40
rsam|ar_coefficient|coeff_0|k_10__absolute_sum_of_changes=40
rsam|fourier_entropy|bins_10__ratio_beyond_r_sigma__r_1.5=40
rsam|quantile|q_0.7__ar_coefficient__coeff_1__k_10=40
rsam|absolute_sum_of_changes__benford_correlation=36
rsam|c3|lag_1__quantile__q_0.9=35
rsam|maximum__variation_coefficient=35
rsam|ar_coefficient|coeff_0|k_10__cid_ce__normalize_False=34
rsam|abs_energy__spkt_welch_density__coeff_8=34
rsam|time_reversal_asymmetry_statistic|lag_2__standard_deviation=33
rsam|spkt_welch_density|coeff_5__variation_coefficient=33
rsam|quantile|q_0.2__benford_correlation=33
rsam|spkt_welch_density|coeff_5__ar_coefficient__coeff_0__k_10=31
rsam|quantile|q_0.2__ar_coefficient__coeff_1__k_10=31
rsam|spkt_welch_density|coeff_8__quantile__q_0.6=30
rsam|spkt_welch_density|coeff_8__quantile__q_0.3=28
rsam|spkt_welch_density|coeff_5__quantile__q_0.7=28
rsam|first_location_of_minimum__permutation_entropy__dimension_3__tau_1=28
rsam|ar_coefficient|coeff_0|k_10__ar_coefficient__coeff_1__k_10=28
rsam|spkt_welch_density|coeff_5__quantile__q_0.9=27
rsam|benford_correlation__median=27
rsam|number_peaks|n_1__number_peaks__n_1=27
rsam|index_mass_quantile|q_0.2__ar_coefficient__coeff_1__k_10=27
rsam|quantile|q_0.1__benford_correlation=26
rsam|number_cwt_peaks|n_1__binned_entropy__max_bins_10=26
rsam|permutation_entropy|dimension_6|tau_1__count_above_mean=26
rsam|ar_coefficient|coeff_1|k_10__quantile__q_0.8=25
rsam|c3|lag_2__quantile__q_0.9=25
rsam|spkt_welch_density|coeff_2__ar_coefficient__coeff_0__k_10=25
rsam|maximum__benford_correlation=25
rsam|quantile|q_0.6__partial_autocorrelation__lag_2=25
rsam|spkt_welch_density|coeff_5__quantile__q_0.8=24
rsam|root_mean_square__benford_correlation=24
rsam|cid_ce|normalize_False__variation_coefficient=24
rsam|number_peaks|n_1__skewness=24
rsam|friedrich_coefficients|coeff_0|m_3|r_30__quantile__q_0.6=23
rsam|spkt_welch_density|coeff_2__quantile__q_0.6=23
rsam|abs_energy__spkt_welch_density__coeff_5=23
rsam|variance__count_above_mean=23
rsam|permutation_entropy|dimension_7|tau_1__count_above_mean=23
rsam|variance__benford_correlation=23
rsam|c3|lag_1__maximum=22
rsam|standard_deviation__benford_correlation=22
rsam|number_peaks|n_1__ratio_beyond_r_sigma__r_1.5=22
rsam|ar_coefficient|coeff_1|k_10__ar_coefficient__coeff_1__k_10=22
rsam|permutation_entropy|dimension_6|tau_1__ratio_beyond_r_sigma__r_0.5=22
rsam|ar_coefficient|coeff_3|k_10__quantile__q_0.6=21
rsam|spkt_welch_density|coeff_2__abs_energy=21
rsam|cid_ce|normalize_False__benford_correlation=21
rsam|median__benford_correlation=21
rsam|spkt_welch_density|coeff_5__quantile__q_0.3=20
rsam|number_cwt_peaks|n_5__count_above_mean=20
rsam|permutation_entropy|dimension_4|tau_1__kurtosis=20
rsam|cid_ce|normalize_True__skewness=20
rsam|permutation_entropy|dimension_3|tau_1__ratio_beyond_r_sigma__r_0.5=20
rsam|ar_coefficient|coeff_1|k_10__quantile__q_0.1=19
rsam|abs_energy__spkt_welch_density__coeff_2=19
rsam|benford_correlation__quantile__q_0.1=19
rsam|number_cwt_peaks|n_1__count_below_mean=19
rsam|permutation_entropy|dimension_3|tau_1__absolute_sum_of_changes=19
rsam|first_location_of_maximum__permutation_entropy__dimension_4__tau_1=19
rsam|permutation_entropy|dimension_5|tau_1__ratio_beyond_r_sigma__r_2=19
rsam|quantile|q_0.9__variation_coefficient=19
rsam|ar_coefficient|coeff_0|k_10__cid_ce__normalize_True=19
rsam|spkt_welch_density|coeff_8__ar_coefficient__coeff_0__k_10=18
rsam|max_langevin_fixed_point|m_3|r_30__quantile__q_0.4=17
rsam|spkt_welch_density|coeff_8__cid_ce__normalize_False=17
rsam|spkt_welch_density|coeff_5__quantile__q_0.6=17
rsam|quantile|q_0.6__variation_coefficient=17
rsam|first_location_of_minimum__permutation_entropy__dimension_5__tau_1=17
rsam|quantile|q_0.8__variation_coefficient=17
rsam|number_peaks|n_3__skewness=17
rsam|fourier_entropy|bins_5__variation_coefficient=17
rsam|spkt_welch_density|coeff_8__quantile__q_0.9=16
rsam|first_location_of_minimum__permutation_entropy__dimension_4__tau_1=16
rsam|quantile|q_0.8__benford_correlation=16
rsam|ar_coefficient|coeff_2|k_10__ar_coefficient__coeff_1__k_10=16
rsam|quantile|q_0.3__ar_coefficient__coeff_1__k_10=16
rsam|number_cwt_peaks|n_1__ratio_beyond_r_sigma__r_2=16
rsam|number_crossing_m|m_0__skewness=16
rsam|minimum__benford_correlation=15
rsam|benford_correlation__quantile__q_0.3=15
rsam|permutation_entropy|dimension_6|tau_1__benford_correlation=15
rsam|index_mass_quantile|q_0.2__autocorrelation__lag_1=15
rsam|ar_coefficient|coeff_1|k_10__quantile__q_0.7=14
rsam|spkt_welch_density|coeff_8__quantile__q_0.8=14
rsam|spkt_welch_density|coeff_8__quantile__q_0.4=14
rsam|spkt_welch_density|coeff_8__median=14
rsam|spkt_welch_density|coeff_5__quantile__q_0.1=14
rsam|spkt_welch_density|coeff_2__friedrich_coefficients__coeff_3__m_3__r_30=14
rsam|quantile|q_0.3__benford_correlation=14
rsam|quantile|q_0.2__partial_autocorrelation__lag_2=14
rsam|number_cwt_peaks|n_1__benford_correlation=14
rsam|permutation_entropy|dimension_7|tau_1__quantile__q_0.9=14
rsam|friedrich_coefficients|coeff_3|m_3|r_30__abs_energy=13
rsam|ar_coefficient|coeff_3|k_10__quantile__q_0.3=13
rsam|spkt_welch_density|coeff_5__quantile__q_0.2=13
rsam|permutation_entropy|dimension_3|tau_1__variation_coefficient=13
rsam|number_cwt_peaks|n_1__permutation_entropy__dimension_7__tau_1=13
rsam|permutation_entropy|dimension_7|tau_1__skewness=13
rsam|permutation_entropy|dimension_4|tau_1__skewness=13
rsam|quantile|q_0.3__partial_autocorrelation__lag_2=13
rsam|ar_coefficient|coeff_4|k_10__ar_coefficient__coeff_1__k_10=13
rsam|permutation_entropy|dimension_3|tau_1__quantile__q_0.9=13
rsam|median__quantile__q_0.8=12
rsam|quantile|q_0.9__benford_correlation=12
rsam|quantile|q_0.8__ar_coefficient__coeff_2__k_10=12
rsam|quantile|q_0.2__ar_coefficient__coeff_2__k_10=12
rsam|first_location_of_minimum__permutation_entropy__dimension_6__tau_1=12
rsam|fourier_entropy|bins_10__variation_coefficient=12
rsam|ar_coefficient|coeff_3|k_10__ar_coefficient__coeff_1__k_10=12
rsam|ar_coefficient|coeff_0|k_10__partial_autocorrelation__lag_1=12
rsam|spkt_welch_density|coeff_5__median=11
rsam|number_cwt_peaks|n_5__abs_energy=11
rsam|permutation_entropy|dimension_4|tau_1__ratio_beyond_r_sigma__r_0.5=11
rsam|permutation_entropy|dimension_5|tau_1__quantile__q_0.8=11
rsam|quantile|q_0.7__cid_ce__normalize_True=11
rsam|ar_coefficient|coeff_0|k_10__number_crossing_m__m_0=11
rsam|benford_correlation__quantile__q_0.6=10
rsam|number_cwt_peaks|n_1__ratio_beyond_r_sigma__r_0.5=10
rsam|permutation_entropy|dimension_7|tau_1__absolute_sum_of_changes=10
rsam|quantile|q_0.3__ar_coefficient__coeff_2__k_10=10
rsam|quantile|q_0.7__partial_autocorrelation__lag_2=10
rsam|number_cwt_peaks|n_1__variation_coefficient=10
rsam|spkt_welch_density|coeff_8__root_mean_square=9
rsam|spkt_welch_density|coeff_8__absolute_sum_of_changes=9
rsam|permutation_entropy|dimension_7|tau_1__quantile__q_0.8=9
rsam|permutation_entropy|dimension_4|tau_1__quantile__q_0.8=9
rsam|number_peaks|n_1__lempel_ziv_complexity__bins_100=8
rsam|quantile|q_0.7__ar_coefficient__coeff_2__k_10=8
rsam|quantile|q_0.6__ar_coefficient__coeff_2__k_10=8
rsam|ar_coefficient|coeff_1|k_10__quantile__q_0.6=7
rsam|benford_correlation__quantile__q_0.7=7
rsam|number_cwt_peaks|n_1__abs_energy=7
rsam|ar_coefficient|coeff_3|k_10__quantile__q_0.2=6
rsam|ar_coefficient|coeff_1|k_10__quantile__q_0.3=6
rsam|number_cwt_peaks|n_1__sum_of_reoccurring_data_points=6
rsam|permutation_entropy|dimension_5|tau_1__kurtosis=6
rsam|ar_coefficient|coeff_3|k_10__quantile__q_0.1=5
rsam|ar_coefficient|coeff_1|k_10__c3__lag_2=5
rsam|number_cwt_peaks|n_1__count_above_mean=5
rsam|permutation_entropy|dimension_3|tau_1__kurtosis=5
rsam|ar_coefficient|coeff_3|k_10__c3__lag_1=4
rsam|ar_coefficient|coeff_3|k_10__quantile__q_0.4=4
rsam|number_cwt_peaks|n_1__lempel_ziv_complexity__bins_5=4
rsam|permutation_entropy|dimension_6|tau_1__skewness=3
rsam|ar_coefficient|coeff_3|k_10__abs_energy=2
rsam|ar_coefficient|coeff_1|k_10__median=1

parameters:
[boosting: gbdt]
[objective: regression]
[metric: l2]
[tree_learner: serial]
[device_type: cpu]
[linear_tree: 0]
[data: ]
[valid: ]
[num_iterations: 100]
[learning_rate: 0.1]
[num_leaves: 31]
[num_threads: -1]
[deterministic: 0]
[force_col_wise: 0]
[force_row_wise: 0]
[histogram_pool_size: -1]
[max_depth: -1]
[min_data_in_leaf: 20]
[min_sum_hessian_in_leaf: 0.001]
[bagging_fraction: 1]
[pos_bagging_fraction: 1]
[neg_bagging_fraction: 1]
[bagging_freq: 0]
[bagging_seed: 3]
[feature_fraction: 1]
[feature_fraction_bynode: 1]
[feature_fraction_seed: 2]
[extra_trees: 0]
[extra_seed: 6]
[early_stopping_round: 0]
[first_metric_only: 0]
[max_delta_step: 0]
[lambda_l1: 0]
[lambda_l2: 0]
[linear_lambda: 0]
[min_gain_to_split: 0]
[drop_rate: 0.1]
[max_drop: 50]
[skip_drop: 0.5]
[xgboost_dart_mode: 0]
[uniform_drop: 0]
[drop_seed: 4]
[top_rate: 0.2]
[other_rate: 0.1]
[min_data_per_group: 100]
[max_cat_threshold: 32]
[cat_l2: 10]
[cat_smooth: 10]
[max_cat_to_onehot: 4]
[top_k: 20]
[monotone_constraints: ]
[monotone_constraints_method: basic]
[monotone_penalty: 0]
[feature_contri: ]
[forcedsplits_filename: ]
[refit_decay_rate: 0.9]
[cegb_tradeoff: 1]
[cegb_penalty_split: 0]
[cegb_penalty_feature_lazy: ]
[cegb_penalty_feature_coupled: ]
[path_smooth: 0]
[interaction_constraints: ]
[verbosity: -1]
[saved_feature_importance_type: 0]
[max_bin: 255]
[max_bin_by_feature: ]
[min_data_in_bin: 3]
[bin_construct_sample_cnt: 200000]
[data_random_seed: 1]
[is_enable_sparse: 1]
[enable_bundle: 1]
[use_missing: 1]
[zero_as_missing: 0]
[feature_pre_filter: 1]
[pre_partition: 0]
[two_round: 0]
[header: 0]
[label_column: ]
[weight_column: ]
[group_column: ]
[ignore_column: ]
[categorical_feature: ]
[forcedbins_filename: ]
[objective_seed: 5]
[num_class: 1]
[is_unbalance: 0]
[scale_pos_weight: 1]
[sigmoid: 1]
[boost_from_average: 1]
[reg_sqrt: 0]
[alpha: 0.9]
[fair_c: 1]
[poisson_max_delta_step: 0.7]
[tweedie_variance_power: 1.5]
[lambdarank_truncation_level: 30]
[lambdarank_norm: 1]
[label_gain: ]
[eval_at: ]
[multi_error_top_k: 1]
[auc_mu_weights: ]
[num_machines: 1]
[local_listen_port: 12400]
[time_out: 120]
[machine_list_filename: ]
[machines: ]
[gpu_platform_id: -1]
[gpu_device_id: -1]
[gpu_use_dp: 0]
[num_gpu: 1]

end of parameters

pandas_categorical:[]
